10111000011001001101011111010110
10111001100100011000101111111001
00111010000001111101010000111010
10111001101100100010000101001111
00111010010000010111011011111000
10111011100111010010010101010010
10111001101000000000010001010100
10110110000110000100110010111000
00111001101010111110110110110101
10111011000101000001001101011011
10111010001100110100111011000001
00111001100101000100011101110110
10111011100011000010100100101101
10111001001110010010010110010110
10111010100101010100010010001001
10111010111100101101010001110111
10111001111011011001000010010010
00111010110001101111101010000111
00111001111100101000101100011001
00111010011100111110111101110111
00111010000110101011000101101010
10111000110011110100110011101000
10111011001000100010101101100100
10111011000101000110000101111011
10111001110101000010110001010001
00111010110011011111001001001010
00111000000001011100010110111001
10111001111011010100100011101110
10111011100100010100100110110101
10111011011010001100001110101000
00111001100111010000101101100111
00111010110111011100010111101001
00111001111011111001000100111011
00111010010001011101101110001111
00111011100010110011100110011000
10111010100101010001100110110101
10111010111010001101010110100110
10111010100010001001100100000011
10111010011000001100100000101101
10111011010110000011011100010010
00111011100011000101101100111111
10111010111011110000011111111110
00111011000010010011001100101101
00111011010111000110101110101000
00111010101111011010110000000100
10111001111110010111111010101111
00111010001000010001111111000101
10111010000000110001101001111100
00111000011011011110011001100111
10111010111101111101111111001011
10111010110011101110000010010000
10111010100110101010111011111010
10111011010010101010110010000010
10111010001101110110101010101001
00111001101100010110110001000110
10111011000001100000011001001111
00111010101101010101010101010001
10111010100110100010011010110011
00111011000111001000001000011000
00111010111100011001100001101001
10111001100000000110100110001100
10111010101101110100101111100010
10111010011110001011001010000001
00111001100011011110011000111111
