10111010111111010010010010000111
00111011010010111010001100011111
00111011010001111100011000101010
10111011001000110010110000100110
00111011100011111011100001101010
10111010101010000001011011100100
10111010001101101110010101010010
10111011111101011111000110000111
00111000010000010101001001100100
00111010111111101011010011010111
00111010100101010000100010001010
10111100000001111110001001110000
00111011001101110010101001100101
10111010010111011000001011100001
10111010110100001100011010111100
00111011011000001111011111111101
10111001100001001110110001111111
00111011100111010101011001110011
00111001111110011100001011000100
00111100000011101000101010110000
10111001110010110110101000100111
10111011001001001001001110101111
00111010011001101000111101111011
00111001001110101000100011010100
10111011001011100010010101001010
10111011000010111110111001101001
00111011010000001100011100101101
00111011100110010010010111101010
10111010111010100100011111011001
10111011000110110101001111111111
00111010111010000111110001000011
10111011000101001110110100000100
