00111010101000111110001011111000
00111011001101010001010110000011
00111001100100100111101111010100
00111011100001001101100000100010
00111011011010100001011100110010
00111011001000010111101100101011
00111010111111101110110010100010
00111001111110011000110110101110
00111010000010111100101100010100
00111010111100111100010100111011
10111010110000110100010100100110
00111011100000100100011000010011
00111010101001000000001010110111
00111011100101100111101000000100
10111010110000111010100100100111
00111011000001001000001101101001
00111011100001011111111100101110
00111010011011110100111011101111
10111010011100010110000011101000
00111000101010011110111001101111
00111011000011101000011001100110
10111010010001100000000110010110
00111011100011001110100100111110
00111011001001010011100011001110
00111010111010010000011100001100
00111011000100001000111110010100
00111001100110010101100010111011
10111001101111010100001110111101
00111011101010101101010011110100
00111011101001110001001011000000
10111010100001111010010010110011
00111011001100110111001000000111
00111011000111100001110011100100
10111001011000101111100111001100
10111001100110110010101100000110
00111011001110110100000100010110
00111010100110111101001101101101
00111011001100111100001000101011
00111001110001001001100001000100
00111011000101101010110110111001
00111010100100111001011010000100
00111010100011011011000100001011
10111010000100101000010001000000
10111010110010111000011111100111
10111001111101101110101010000011
10111000011000101001111101110011
00111011011001110100001111101100
10111010101111011010111101100100
00111010100011010101110011110001
00111011001100011011000001001011
10111010001011010001101111001111
00111010110100101000101110111111
00111001101001110010100100000101
00111001111111100001000011110100
10111011100000101001010110000001
10111011010101010111110100010011
10111000010111010110110000011110
00111010101110110010110001010010
00111010001110110100001000001011
10111011001110100110110101000111
10111010111101110101010010010110
00111011010111001001101010010110
00111010100101001001010110110111
00111011101111000010000000110011
