10111011000111101011100100100111
00111010100100101011011101111110
00111010110100010001101010011110
10111010110010011010110001110111
00111010111100100000000011110111
00111010110110001001011010100001
00111010000111111100001101010001
10111011010111110101100101010001
00111010110101001001111111111111
00111010001001000110001000011101
10111010011110100010101000101011
00111010011011001010111111000000
10111010101010011111110010010101
00111010111001000100011010101000
10111010010000111100110011001100
10111010100010010101010100111011
00111011010110001101010101111000
00111010001110000111000000011111
00111010000010111011001010001111
00111011011011010110101100000001
00111010010011111111001000000011
00111010001000001010111101000000
00111011000100111111101111000100
00111000110000000000100001110110
00111010001011011000110010011110
00111011101011111010110011111001
10111010111110111010001010011110
00111011100000001010000000011100
00111010100000001011000010101000
00111011010101100011111111000100
10111010100100101011000000001110
10111001101111010000110101001111
10110111111001000101101010010110
00111010011011100011101111110011
10111011010100110111001110101100
00111001100101011001110111110001
00111011000010101100100010000010
10111010111000110001111010010110
00111010001101111101011100011101
00111010111101110011011111010101
10111011000011001100101111101110
10111010101010000010100111100010
10111010110100110101001001100010
10111010001001000110110111111100
10111010100011010110100100111001
00111001110011100000110110111111
00111010100110111000001110101101
00111010100110011001111000011000
10111000100011011001001101011100
00111011001100101100000011110100
10111001101110110110000101111011
00111010111010001001110010010010
10111011000100000100011010101001
00111010010100010111111111111000
00111001001001111010111001110101
10111011000110110101100101010010
00111011010111111110001001001100
00111010100011010111111101111100
00111001011100011001111000010010
00111010111101010111110001000110
00111010010011111001011000101001
10111010000001111001000001110110
00111010111011011010101000110111
10111011000110000010011001101000
