00111010110010000110101011100100
00111000110011101110000001110111
10111011001100010100011110110111
00111000011110011001100101100000
00111011011010111111000101111101
00111001100101011100100010010111
10111010100000111010100111001001
00111010010110010011110111101000
00111010110100010100001001000100
10111010011010110101101000101001
00111010111000011110001100001010
00111011000010000111101001011001
10111010110011010001001011101101
10111010111111110100001010011010
10111010100010000110010111001101
00111001100110111010011000000011
00111000110100001111100111001111
10111001011000110111110110100000
00111010110000111001100000000010
00111011000001011100001011101101
10111001101011000001010001011011
10111011001100100100001001111000
00111001101100101110101111000101
00111010100101111100110110111000
00111001101000001100100110101110
00111010111011110001001011101110
10111010101101111110001110010011
00111011000010111101001111000100
10111001011011101000011011010101
00111011011110110010001001001001
00111011100010000010111000111010
00111011000100001001011010010111
10111001001101101100000011011101
10111010100000101001101100110100
10111001110011010000111000101011
00111010111100001010101100011010
00111010000001011001111001110101
10111010100100110111101000110010
10111010001110100101001101010001
10111001101010110111110110000001
10111011010000100010101000111001
00111011010010000110100111011011
00111010100010101011001011101100
00111010101111111000101000101000
00111011101001001110001000010000
10111001001001011011001100100000
10111001101000111110110001011011
00111010000101111011010001000110
10111011000101100111101101101000
00111001101101110111001101010101
00111011100000001000101011010111
00111011010011110000000110011001
10111011000101110001010110101111
10111001011110111110101111001111
10111011001110111111101111111100
00111011001000100001101010110001
10111010111111111101001000111111
10111001110011110010001100000110
00111010111000110110010001110010
00111011000111011001100101100111
00111011001001001001010101111110
00111011101111101111101011100111
10111010111011101101001101000011
00111001100101010110101110111010
