10111011000011101111110110010010
00111011000000111101011011101101
10111001111010101010111000110110
10111011000000010001001000100111
10111011101000111010011010111010
10111010100000111001011000000100
00111010111110111000010001010010
10111001100111101011001101011000
00111001001110010010101001011000
10110111100011011100101111111110
00111010111101101101001010011011
10111001101010001100010101101010
10111010110100110001110100100111
00111011010101001100111000111000
10111001111010001011111101001001
00111011010010010001111010010001
00111001110010111011000110011001
10111001111010111101001101001000
00111001110000100010101001111000
10111011100100110111010111001100
10111010000000001100011001011100
10111011110111000001110101110011
10111011100010110001101001011100
10111001100010010001101111001011
10111010101100101010011101110110
00111010101010110000001000001000
10111010100111011101000100001110
00111010101110111010110111010101
00110111100110001001111011011000
10111010011111010111001000101001
00111010001100111101010001011000
00111010101100010010011000110111
00111010101010111111110111000001
00111011001001111011010100001111
10111011000110101111110100111011
00111010000000010111111111011010
00111010001111001000110000110011
00111010000000100001011011000111
10111010111011000011000111101010
10111010001110110100010011111011
10111010001011001111100000101001
10111011001000101111110010101001
00111010100011000011001101000101
10111010100011100111001101010010
10111010001100000100000101010011
10111010101111101110100011100010
00111011100001100010010010101001
00111010000100101111000010001010
10111011011111100001011111000010
10111011000010101000100111110000
10111011100000010011100110100101
10111010110101111011001001000111
10111001111001110010110001010011
10111010111110111101101010000011
00111010001000011000100111011010
00111010111001100110100111000000
00111010001110010100100010100100
10111001101010000111000010000101
00111001111100011100010000110101
00111010100010110010010100100001
00111010010011011000010000010100
00111011101000000111110000001011
00111011011110100000100001100110
00111010100010011110101010010010
