00111010101000101000100110101011
00111010111010101001110010100100
10111010101000101110011111001011
00111010101111100010011110001010
00111011000100100101001100110001
10111010001100011101101011000111
10111100000001110101000110111110
10111010101101111011010111100101
00111011001000101000001111101001
00111010110000010001100010001110
00111001010100111110001111101011
00111010110001011111011001101110
10111010001111100100000111000001
10111010101010100110101011001011
00110111100101101000110100111101
10111011001110000101101101001100
10111011011000111000110110010100
10111010111100010110001000001010
10111000011100110001010010000111
10111011011001010001110110100000
00111010010011100011100110101000
10111100000100100000101110110010
00111011101110001101000011111000
00111100010100010110011011001110
10111011001110101110000011100110
00111011000110110101110101110111
00111011101111001011000001100110
00111011011001010010101111111100
00111010010001111011110011101101
00111100001000101001110010111101
00111011100000111100100110100001
00111011011111110001010000111000
