10111010010010010001011000010001
10111011100100110111100110011110
00111001100110011100011111111101
10111010100100011111000110010010
00111011001101100001010011100101
00111010101101011101111111111100
00111010111100001111011010010101
10111010100100111110011010110111
00111010100011000100100110001011
10111010000010111000110111001000
00111010011110011100101010100000
10111001000101010010111010111101
10111010110110101000100001010001
10111011000110100011001100110101
10111010101100001011111100011110
10111010100110010111010110000000
10111011000011000000111101111000
10111010111000100001111011010011
10111011010001010110101010100010
00111010101111110001000101000010
10111010101111111011010000011111
10111010110010000000000100011110
10111001111011110000100001111110
10111010110011000111011110011100
00111010111111000010111110100000
00111011110011101111011010010101
10111010011100111100011001011001
00111011001100011001111011000001
10111011011101000001111110000011
00111010110001001101011101111010
00111001110101101100101011111011
00111011000100000110001010010100
00111001111110011100011100000010
10111011000100011100001010010111
00111010100010101011001101010101
00111010101010110010011110110101
00111011000000101010011000010010
00111011101010011110100100101011
00111010111000100010011000001100
00111011001101100101101110101001
00111010001001111000001110101000
10111010110101000000000010111011
10111010100000111010111000100110
00111011011111010111000101010100
10111010010000010111101000010111
00111001011111111011010001011100
10111011100100110001010101010010
00111010010010010010010110111010
10111010111010100001101000111011
00111000010110100111110000010100
10111010100001001011011000111110
00111010001111101101011001000001
00111001000011011000001111111000
00111011001000000011101011111001
00111010010011110101001111001100
10111001010001111110101000111000
00111010111010011101110111011111
10111001110000011101001010011101
10111010101101100101010000011000
00111011001000010000101001111110
00111010111000100001001001111101
10111010110011101000001000000000
00111010010001110100101101101100
00111001001010101101100011100110
