00111011001111100101001010111000
10111011101111000000110010010100
10111011001001111010001110011101
10111011010111010000011111011111
10111010011010001110011101010000
00111010100100101011110110100011
10111010100010111100110100001111
00111011101110001010010000000011
10111010000001000010100010111110
00111100000100000010000010001100
00111011100110000110011111001100
00111011110110110000011010110100
00111010110001110001010010010000
00111011001100110101100110100010
00111010111010000110111010110010
10111010111110011110101011100110
10111011000001100011110100000101
10111010111110100010000010011011
00111000111111000011011110010000
00111011010100000110000000110100
00111001110001111000010111101111
10111010101011000011101010111100
10111010110000111100100001100101
00111010000110110101110010100110
10111011101001111011001101101101
00111001110100010000001010101100
10111100010011000011010110101110
10111010111000101000111100101000
00111011011011101001000110100000
00111001110001101000110010011101
00111011000000111000010101101001
00111010110010111100111110010110
