10111011101010000001010111100111
10111011011100100001011110101101
10111011010111010011100010011010
00111010000110101110010101001101
00111010101010001111111100000011
00000000000000000000000000000000
00111010101010101000011111111111
00111010110110101001101010110110
10111011000010110000111010111010
10111010110001101101010010110101
10111011100100101101001010011100
10111010110111011110000011000010
00111011000111110000100010100111
00111011100001100000000011001111
00111011001101000111011111010001
10111011001111010111111111011010
10111011000011111101010010001111
00111011000101010101110111101001
00111011000101010001010010110010
00111011010010000010010000100101
00111011000101100111110110011001
00111010001111111000110110000001
10111011001101111110001011101100
00111011011110011111001001111011
00111011000001101011000110110000
10111010101110101111101001110001
00111011100001001110101011100100
00111010000110011110100110010110
10111011011011011011000110010001
10111001011010001010110111010101
10111011101001011100000110100110
00111001000101000011001000000100
00000000000000000000000000000000
00111011011111100100110101111101
00111011010110101100010101011100
00111100000000010101101111011010
10111010011011001001000010111110
00111000010100111010110000110001
10111011010111111111000000110100
00111011000101010000011111001110
00111011000010111000000010001110
10111010101100000100010100000001
10111001110001000100011010001000
10111010101110101111111101001001
00000000000000000000000000000000
00111001101111011011010110011011
10111011000101110110001110101100
00111011000101101010000111000110
10111011001010010001000101001010
00111011000101100000010111001110
10111010000001110011101000100101
10111011010000000000000000001011
00111010101000001110010010000000
00111010100001110011100100100101
00111011000101011110100011101011
00111011100001011011011100010011
00000000000000000000000000000000
00111011010100011111000100010111
10111011000011101101000011110100
00111011100111110001111010000100
00111011100011101001100001110110
00111010001000100000111011110001
10111011000100001101001010000010
00111011010001100011011001111011
