00111110000100101101011110010111
00111110100001000010100110101010
00111101110101110000011110000000
00111110100101010011100000001000
00111110011011111001101110001011
00111110011111110100110011010101
10111101111111000100001100111111
10111110000111011010010111011100
00111101110101001001010010001100
00111110010111000000111010000101
10111101111100100001110000101110
10111110000001011011110010110000
10111110010100100011000000010011
00111110011111111011110110010001
00111110100001011000001111001110
10111110100100000001101100111001
10111110001100111100001010101110
00111101101010110001101001100111
10111110011100001110110011010000
00111100000110110101101011011000
00111000111110111101011001010101
00111110100001000100011111111100
10111110000100101010011101001001
00111110100011101010000101010110
00111110100001101101110000000101
10111101011111000011000011101100
10111101010010000011011000011100
10111110000111000110111100001010
00111110100000101000100100001000
10111110010001110001100111000110
00111110010001110000010100100110
00111110000101101001110010011111
00111101111010101111100000011011
00111110011011110110110011111011
00111110100001100101001101001101
00111101110010110100001100111010
00111110001110010100011111110101
00111100111011010010111100111111
00111110000001010110101100011110
00111100111101001010100100011010
10111110000011111011110111111101
10111110011000101011000001110101
10111110100100011001001000100101
00111110100101001011110000110010
10111101100101111011100000010001
00111110010101100100101110011001
10111110010000010010001001100111
10111110100110001101110000110100
10111110011111000101110011001101
10111110100001110010001111001111
10111110001000101000101010110010
00111110011001110110110010011111
00111110001100110111000100110111
10111110001111011000101011001111
00111011100101100011101001111101
00111110001110101000111100100010
10111101001000001100011111000111
00111110011010101110001101011000
10111110011110111100110001111010
00111101001001101100111000110001
00111101110110111100000011101111
10111110100100101000111000010001
10111110001100010101010001110110
10111110001101001000101001010100
00111110011110000001001111011100
10111110100001010001110010100101
00111110010011111101010011010111
00111101001100010100000111100001
10111011100101001110100000101111
10111110001101100100010000000010
00111110100101111001100110001110
00111110010001000111101001000111
10111110100001010101001110001010
10111110100101010000001000001110
10111110100011111101110101101110
10111101101000110111110010001000
10111101111000000111011110011010
10111101111010010110011101010000
00111101111100010100010100100001
00111100000010101100011101101110
00111110001000000001101001100101
00111101000110100000011000000010
10111110010101001010111011101001
10111100111101000110000001011001
10111100010111001000101101011010
00111101111010010101101010111011
10111110010001001101110110011110
00111110100100101111100011110101
00111110011111001100111011000000
10111101100010001111100100110100
00111011100100001011001100111001
10111101010110010111010000010110
10111110100101000010001111110011
10111101101001110100010111101111
00111101011110101110000100001110
00111110011101111100010101010100
10111101101100100110101111100100
00111110000000110011011111011111
00111110001100011101001110000010
10111110010101000011011101011010
10111101010010011100110011001001
00111110100110000101001010100001
10111110100010000010001101101111
10111101100001010100011000000000
10111110100011011111000111110010
10111100010100011010001100001100
10111011110110110100011110110000
00111101001101001111100111001100
00111101101011100010101000010010
10111110011110011010101011111110
00111110100101110101100110000100
00111101000010101110011000110011
00111101110010000100000011010000
10111110100011101011111001010100
00111110010010111011111010010100
00111110000111001111000010110101
00111110100010100001101110111110
00111101100001010111110001111101
00111110001001000001110110110101
10111110100000010100101111101001
00111110011100111010111101001000
00111101111011110001011001010001
10111110100100001110110110101010
00111101001011001000110001010011
10111110100001000011000010101111
10111110001100111100011101011010
10111100111110101100111000110000
10111101111100110101101100010100
