00111101101110100001010001111011
00111110010011100011101110100000
10111110001100001101101100100101
00111110001110001101111010011010
00111110001000110000101110101101
10111100101101001000110100110000
00111110010111110100101000011001
10111110001100101100111101110110
10111110000001100010100111001110
00111101101101010101110111011100
10111101101111110011011100111000
00111110000110001010011000110011
00111110001000111010000100011101
10111101100000101011100011010001
10111101110010010100101001110110
00111110010011101000111011001111
00111110010001100100111101101101
10111101101101101111101000011011
00111110001000100010111111011111
10111100000011101100010001100000
10111100101111011101010010100100
00111101110001110100011110110100
10111110000010110000010100001010
10111101100011001100101110000100
10111110000001100101001110111100
00111101111000010001110001000110
00111101101011010001010001111011
00111110001101001011110010111111
10111110001111100100000110101010
00111110001010111110000101010100
10111110000010011000001011010010
00111110001001110001100100110101
10111101001110010111001111011000
00111110000000101010101000001001
00111110001110011111000101000111
10111110010010110001001100000101
10111101100100000111001001111100
10111101100100101010111101001111
00111101101011110011001001110001
00111110010010011110001111100000
00111110000101111100100100101100
10111101111110011101111110011001
00111110010111110111000111100011
10111101010011101010001011101110
00111001100100001000010000000000
10111110010010011101000000101001
00111110001011100010101101111110
00111110010101100111100010011100
10111110010111000100010001001111
00111110001101100101110001100101
10111101100000101111010011000001
00111110000101101110111110000100
10111101101110011010010110011100
00111101000110111001100010010101
10111100100100100010000100100111
00111101111011101011101100101010
10111011110101011011111100000000
10111101011100000010010001100100
00111110000011010111010010001000
10111101100110011010110000010101
10111100011101100010111010110011
00111110000100101001110001001011
10111110010010101001010001000011
10111110001110001001010011011011
10111110011001100111011111011100
00111110001100011011001011110101
10111100000111000101001101000111
00111101100110010100011001110110
10111101110011001101111011010000
10111101000100101011011010101000
00111110001000001011100100100110
00111110001010011110110101101100
10111100010011100010000001100000
10111110010000111100001111100011
00111110001011111110110101011011
00111100001010011111001110111000
00111101111011011100011010111111
00111101111100000100011000011001
10111110000010000001111011011010
10111110001011001100010101101111
00111110001001011011010111010010
00111110010000011010110011011001
10111011100100110001001010101001
00111110010001100001100101010001
10111010011011000011110000100011
00111100100010101001100101000010
10111101111100000001010011011111
00111101101000110010001101000001
00111100110101111110111000001010
00111110000101011000110110111000
10111100100001010111100111010010
00111100101011110111111011010101
10111101100100010111001111000000
10111110000110001010000100101001
10111101010110100111001001100101
10111101000001000001100001101110
10111110000000111010111110111011
00111101010000001110000111100111
00111110010001110110010010101111
10111110000011010001101001011011
10111101111000111110101001010110
10111110000100100110101001110101
10111100100000010010111101001001
00111110001101101111001100001011
00111101110111110000101100110011
10111110000011001111111011000000
10111110000001110101111101100111
00111110001110111011100111101001
00111110001110001000011000010011
00111110010000010001010001011001
10111101000011100100110111011100
00111101000000111110000111010111
10111110010100110101001110110001
00111110001000111100101000011010
10111101101010011111110001101000
00111110000100000101111001010110
00111100110010100000001001010011
10111101111100111001100000111010
10111110000011100111001110011001
00111101100110111100111000110111
10111110010100000111101110010111
00111101111000101000111000001001
10111101100010000100010001000011
00111110010011000111010111001100
10111100001100111010100001101111
10111110010101010111110111011011
10111101110110100110001100001101
00111110001110100100110001100110
00111101101110101010000001000001
10111110001110111110101011100010
00111101100111000110110000101110
10111110001111011110001000111001
00111101001100011011111100011101
00111101101101001011111100001110
10111100011011010111101111110111
10111100110100110101001000011110
00111110000001111001101011010101
00111101111010100101001111101010
00111101011000100001010100000111
00111110000101011011001111011000
00111110001011011010001110000111
00111110001101110001001001101000
10111101000001011010010100011110
10111101110000101101001001111011
10111110010101001100000100010101
00111110010010101011010010101000
10111101110101110011101010100001
10111110000010111100000011011100
00111101101010110100111111111010
10111110010001001111000011010010
10111101101001010011011011110011
10111010111011011101110101100001
00111101010110010000000111111001
10111101001010101000100100011000
00111101001100010110100000011110
10111110010010010111010010010001
00111100110010011111100101000011
00111101001011011111100011111011
00111101110101101001100001100111
10111101110000001111001101111001
00111101011001110010100110010100
10111101100011000111010110010010
00111101101110010011011010001010
00111101010011010010000101000100
00111101000110001001111101011000
10111110001110111011000101000110
00111110010100010100010001001101
00111101101100000000011000000111
10111110001011000111000000101111
00111101110010111001101001000010
10111101100111000011011111100010
00111101101111010100001100001011
00111110000001001111111000001011
10111110001101000011101000011111
10111110010100100110101001011100
10111101101011100001110111001111
00111110001010011011001111010010
00111100111111100101011000010100
10111100111111000101110011100110
00111110001010000011001010110000
10111101100010101110100100101001
00111101011001010100100111011011
00111110011001001001011110000110
10111101110100010111110101100100
10111110001010001110010101100110
00111101110011110011111110011111
10111110010011010001000000011101
10111100000011111100000000110011
00111101101100000011110001100000
00111110010011111001100101010010
00111110000011100011100001011101
00111100010010111000001110101011
00111101000110111010001100001011
10111101100001100000001100101000
00111101111101100001001100100011
00111110000011100001111101110101
10111110010010110110000001011101
00111101111111011000101110011010
10111101000110011110010111010110
10111110010011110111010101100010
10111101100111101100101001111110
10111100000011111011100000111101
00111110000000110110110101011011
00111101001110111110110110010101
00111101101000001000001110101001
00111100100101000111110010101111
00111110010011010111011000000001
10111100101001111011110111000001
10111101100010010010010101011111
00111110000100100100110110110010
00111110001010110100100010000101
10111110001000000100000100010011
10111100011001111111110111110000
00111101010100001111001110010111
10111100100101010011101110011110
00111101111001100001001110010001
10111100010100111101011001001111
10111101111100100100000101001111
10111110000111001111100110100010
10111110000001100110010001110010
10111101000010000101011101110001
00111101110000111011100110111000
10111110000111000000111100000011
00111110000110111111000101100101
10111110010000010001000011101000
00111110001111000110111111010001
10111101100000001001011110110011
00111110000001110110100111111110
00111101001000001000000101000011
00111110010110100110011110101001
10111110000111111001110110111110
00111101101000011001010011111000
10111101111001111001010010100000
00111110001001100000111010110000
00111101101110011110111101101111
10111110010100110111000010101001
10111110010100110010010110101110
00111101111011010100100011010001
00111101001010001001111011110110
10111100111001111110110100011100
00111101111000010111110001001001
10111101110100001000000101101110
10111101100011011110010001110110
10111110010100001011110110000000
10111101000100101010101111010100
00111101101001100111100011011001
00111110001111100000001110000100
00111110001010011111110011100000
00111100110000101101101000011000
00111110010110110010001010001010
00111101010001001110111101100100
10111010111100101101001010010100
00111110001011100010010001101010
00111110010010000010111110010111
00111101110101010100010101001001
00111110000111010001000100111100
00111100001011010100010001010101
00111110010001010110001001110010
00111101101111100010111000111011
00111101011100110101001000010101
10111110000001100001010111001011
10111101100101110011110011011100
10111011111010101000011010111000
10111001001100100100111001111110
10111110001110010000111111110001
10111101111010100000101110011100
10111110001001111101111001101111
10111110010001111101011000001100
10111100011101100100000001110101
00111100000111100101100110110011
00111100011001110100100111111010
10111110000010101111001000101110
10111110010100100111010111010111
10111100001001011010111100110010
10111110001001010011111011111101
10111100110110110110011011110011
00111110010000110110000101010111
00111101000110110111110001011101
10111110001001101000011111011100
00111100111000000111010101110101
10111101110101001111010100110010
10111100111101111101011111110110
00111101100001010011101010001100
00111110010101000011101010101110
00111101101100101000111110011010
00111101011000101010101000110011
00111101101000111101100110110011
00111110010111101100001101110011
00111001110000110101100000000000
10111101101111001110001101010010
00111110010011010101010001111111
10111101011010011110010000101111
00111110010010011100001000001010
00111100111110100001110001000000
10111101101100001011011001001000
00111101011110001001010011101100
10111110001100001111010100100110
00111110001100111110001101101111
00111101100110011111000100000001
00111101011011010010101100111111
10111110001100101010001111011101
10111101100111011110001101000100
10111100100011000010101111100001
00111101100101000011110010100101
10111100001010110010100111011010
00111101101011000001000011000100
10111101100000010100100010111110
10111110001100011101111100011101
10111110001000111100011100001011
10111100111111001111100110010011
10111110010000011000010010101010
00111101000001010010101001001011
00111110010111000110100110010111
00111110001000011101100000011111
00111101101110110000001001000001
00111110000110001101011000010010
10111101101001111110001001101101
10111110001101011101011001000011
00111100100111110010010011000010
00111110010111101000111001011110
10111110001110011010011111001010
00111110000001010001001111101001
00111110001100010110110111001011
00111101011000111000111101000001
00111110000011001111001010100100
00111110000010101100111110100101
00111110010000111001100001100000
10111101011101110111001000010101
00111011101110101010001100110100
10111100010010110001110001011100
00111101110010100101111010101001
10111101001010101100000011001111
00111101100001010001100000100010
00111110000110111101101100110110
10111101100110110010011110100100
10111110000100110011100101010010
10111101100111010110001100011110
00111100111111001110010111001001
10111101101011100101100000001010
10111100000000110010000000000100
10111110010000111110011101100001
00111110001010110100000100111011
10111110000001011000001110101100
10111110001001110010010001110000
00111110010101010110101110011000
10111101100001101001100010000101
00111110010100000001111111000010
00111101100100010100111000010100
00111101101101001011010000010001
00111101111110101100000010111100
00111110001111111011001100010101
10111101110100111011110101001001
10111101101111010110000111001110
00111101010101110110101011001000
10111110000000101010111011010000
10111110001111101100101011011011
10111110001100010110100010010000
00111110001100011111100101100000
00111110000000010001110110001111
00111110000100100001010110011000
10111101001101100101001100010100
00111101001011100110100010001101
00111110000001110100100110100110
10111110010101100101010010101111
10111110010010001111100011001000
00111100010110001101001110101110
00111110010011100011010110010011
10111110010001111010101000000110
10111110001011100111111110101100
10111011001110101111111110100100
10111110010000010010101101001010
10111101111110101010010001100011
00111100100010011100101011100110
10111101111010111110101111000011
10111110001100010100100001100001
00111101001001010111110111011111
10111101101111010011110011101011
10111101001110110111001010001001
10111110010010110100001010100000
00111110000001001110101111010101
00111100100100011001010110110101
00111101100001100101001101101111
00111110000001101110001100000100
10111101110110001100001101100010
10111110010101010011101001100010
10111110010110101100110100101101
10111110001000001110001000100110
00111101111011001101100000011011
00111110010000111010100111001111
10111110001011010000100010100101
00111110001100010100100001001011
00111110001010100110110000111000
00111101010111110111110011101011
10111101001000001011001001111111
00111110000000111100111010011001
10111100000111011000111011000000
10111100011000100011110011000110
00111110010000101110000111100010
00111101010000010111001100111110
00111101100000110100100001100111
10111110000101101101111011000110
10111101110010111010111010011000
10111110000001011000101000010011
10111101100110011110110011011010
00111110001011100100000100011100
00111101110001011101001110111100
10111110010010011000001111011111
00111101100111100111100001110000
00111101100010110100001001110110
00111110001000010111001100010101
10111110010110101100000001010010
00111110000001001011000010110100
00111101110111010001011100000010
00111101110011110001100000100011
00111110001111111011001110111110
00111101110111110011101100011101
00111101011100010111111010101100
00111101111001100010000000001111
00111110010101000000111110101001
10111110001111011110110010011111
10111101001001011010001000000111
00111110001110110000101010000001
10111101010010101111001010001001
00111101101010111011001001110100
10111110001010110111011011010011
00111101111100100011000000010101
10111101111101000010111001100011
10111101000000000000110111111100
00111110000101111011111101001101
00111110000000001001010001100001
00111100000111100011011011000011
10111110000000101110110111010000
00111100010011000010000101110111
00111110010001111111000110110100
00111101101011010100100101000010
10111101001110001011101010101100
00111110010110001100110100010001
10111101100000111010101000100111
00111101111011001001110100011101
00111110000101000000110111001001
10111110001101110101011110001100
10111101010111110111100110110101
00111101101111000010000011011001
10111100011110011110101000001111
10111101100011010101101010110111
00111101100101101010011101010010
00111110010110010100111110101111
10111110010100111101100101101010
00111101110111100101001110111100
00111110000110111100001110011101
00111100001000000110101000001000
10111100101001110000001111010001
00111110000110101101010011010101
10111110010110101000010100110010
00111110001000001100110010001101
10111110010001100111100000010111
10111100110101110001001010000000
00111110000111100101010101010000
10111101100000100100101000011001
00111110001101000100101000110111
00111110000000010110000000100110
10111101110010111101011001000111
00111110000001010000000011011011
10111100010000111110110111110111
00111110010100001010110101000010
00111110001110100011010111111000
10111101111111001000001001010000
00111101110010010110011011111101
00111100101011111100000101001100
00111101111001001111001001111001
00111110001011000100011110111000
00111101111101001101100111111001
00111110001111011001101101101000
00111110000000000100011001100010
10111100101001011001100111100101
10111101111111110110100010000101
00111110000110011000111101010101
10111110000010001111001111010101
00111101011000110100111101000101
10111101101001100000000101011000
00111110000101111100101010100111
10111101011011100111110101011100
10111101101100100100111100001100
00111101100011101011101000000011
00111110000001001001101100111110
00111101100010011011001111011001
00111110001000101000111101100001
10111101101101111001011100011000
00111100111111110111101100111101
10111110000100011011001001001000
00111101111111100010001110111100
00111101100110001101101010001011
10111110000001110011011001011000
00111110000001001000110010001101
00111110010111010011101110010011
10111110001001111010001101100011
10111110001000010000100000000010
10111110001101001101100010001111
10111110000010101010010110110100
10111101111110100111110000111100
00111110010110010000001111011000
00111110000000001011000111110011
10111101101111111001001000000101
10111110010100011100110010000101
10111101111000100110110010001010
10111110000000110010111110100110
00111101011111011110101001011010
10111110010101010010001100001010
00111101101001100100010011111101
10111100101111111111110101111001
00111110010110100000100010010000
10111101000011100000001010110100
10111101010100011011100001111101
00111101101110110100000010000000
10111101000000101011101100101001
00111101100000110000011001001111
00111101101000110111111001100001
10111101000101010010010101000100
10111101001100100100111100111010
10111110001101101110101111010111
10111101000010000100110001001110
00111110001111001011101000110101
00111110001000110101111111111111
00111110000100001001101010011110
00111101110001111111100001100011
00111101111110011100000100010110
00111101111100001000100011010010
00111110010011100000011001000101
00111110001011001011111010101100
00111101100101001110110111011001
00111110000111101111100001011111
10111011111111001100111010000011
10111101011100010100111110010001
10111110000000000010010101101111
00111101110010011001110100111100
00111101101111000000010110110001
00111110000011110001010101101100
10111100100111000001110000000110
10111101000110011101111011000010
00111101101110111000111100100001
10111110000100100110000110101000
10111011100010110110011111111110
00111100111001001010011001101100
10111110010010001101100010001001
10111100011101111001010010000000
00111101011101100011111110110101
10111100011101111010101000001001
00111011010010110011101110001111
10111101101110000110100001001100
00111110001100111010101110101111
00111101011111001100001100111001
10111110001100000000011000011001
00111110010100011100001110110010
00111101101000100011011001101110
10111110001111011110101001101111
10111110001010011100110000001000
10111110001010100010001101000110
10111101101010101001001100100010
00111110000100100001101100000111
00111101011000010001001010100100
10111110000000000101101011001000
10111110000000100111111000000001
00111101110101001011010010000010
00111110000001101001000100111001
10111100100011010011110010000110
10111110001001101010111011100101
00111101110100001000010101010101
10111110001100000011101100100000
00111100111111101110011001000000
00111101010101001000011010100101
10111101101010001100001100101100
00111100111111001110010110011111
00111010001000001100101100010010
00111101110000010101000000000100
00111100001000001010011110110011
00111101010001110000110011111000
00111110000111010001101011100011
10111110010111001101011111111000
00111110001000011010101100110001
00111100110011111110001110000111
00111101000111111110100001100010
10111110010110101110110000010011
10111110001111010100011110001110
10111110000011011101010100101100
10111110010001101101010000110100
00111011111101101000011101000010
10111101011001001101000010001011
00111101110110110101011110110000
00111100111100001110010100110000
00111110000110110001001110100011
10111101011110101110010001100000
00111101100000100011110001100000
00111100011001010000111010011101
00111110001010101110000011101101
00111101001000001010001000001010
00111110011000110100100110101010
00111110001101011100010100111110
10111110000010001010110110110000
00111110010000000111100001011101
00111101011111001101101011001110
00111100110000010000100100110010
10111110000101110011000101100000
10111100101111011110000110010110
00111110001101110110011011110100
10111110000000001001000111011100
00111110010100100100010010110010
00111100101111110010001110100100
10111110000111110001110011000100
10111101000101001011010110010000
00111110000001101111100111110001
00111110001000000111011010011101
00111101111011011010011010100101
00111101101110000110110011000001
10111110001001101001001000011001
00111110001101001000010111100011
00111100010001110000111000100000
10111110000110100100110010110111
10111101001001110111011111111000
00111110001001100001001100010011
00111110001000001110001101110110
00111110010110001001010000111011
10111011110100001000110100111000
10111110001111000110110001001110
00111100000110101110011111010010
10111101100110001011000011001101
10111101100100001111100100001000
00111110010101000100111100000011
00111110001110010000010000110110
10111101101000111101001001111100
00111101110110010010011111110110
00111110000100011011110111000010
00111101111001000011001101111001
10111101101011000011111001111000
10111101110100101101101111101000
00111101100000011001011111010001
00111101110010001111111101100100
00111100110101010001100110000101
10111110010110100101101101010010
10111101100001001101010101011000
00111101001100101110011100000010
10111101010111010001111111100111
00111101101000100011100010101110
10111110010001100000111101011011
00111101001110010101101101010101
10111110000000101111111110010111
10111110010011110100101010010110
00111110000010101011001000011100
10111011101000000101111011000101
10111110010001101011010000111000
00111110000101110100101011100011
00111110000101110110110101101110
00111101110000110111001000101111
00111101101100111010010110110010
00111110001111100100001000100001
00111101101100110110001111100110
10111100101111101110010101010001
10111101011100000100100000100110
10111101111100111101110000110000
10111101101110100010011001110110
00111110000000001101110011100000
00111110010011000101101110101000
00111101111110110110110010000100
10111100110110101010110110111000
00111110000011000101001111000101
10111101011101010101000110110000
00111110000110000101000100001110
10111101001101100001110000010011
10111101001000011011111011111011
10111101100111011001001001000100
00111100011111011110010110000000
00111101110011011010110000101001
00111100101001000101101101010011
10111100101111001000101001010000
00111101001110110000101010101100
00111101001111000010011011011001
10111101100001100110110001010000
10111110010011110000001100000110
00111110010111000110101111111011
00111110001010011111100000001011
10111101011110110001110111010111
10111110010100110110111001001101
00111110000011000000110001100110
10111110000101010100110001111000
00111110010001011011111110000010
00111110000000101001001100001101
00111100110011101011101100001111
10111101101100110001111101001110
10111101111110111001101111011111
00111110001111010000011110010011
00111101111001011000100111010010
00111110001001001100010010000001
10111101110111011010111011010111
10111101110010101111001101111110
10111110001111110110010100010110
10111101011111011100011011101000
10111110001111000011110111010110
10111101100001001001010011010110
00111101111000110110111010000100
00111110001100001011010101011100
10111110001110101011101101100101
10111101000111000101100110110011
10111110001101011110110000101001
00111101011011010001010111101111
10111101000000100000100010001001
10111110010011110101100110100111
00111110000111000001001101000001
00111101110010100110101100011101
10111110001100011110101100111100
10111110010100101001011000001001
00111110000010111010001100011111
10111110001110100001100110110100
10111110001011000110000000110010
00111101011110011001011001001101
00111100010101000101100010111000
00111101011011000110100011010100
10111110000111001100100100001010
00111101110101100011111101101100
10111101111110100111101101011011
00111101100101101101100110100000
00111101111101011011111000101101
00111110000110001110111101100110
00111101111010001100110110100000
10111101111100001011101010111001
00111101101101011101011000111011
00111101101101100011100100001001
00111110010100001100100010010001
00111100111011101100001000011101
00111100100010101100100111010011
00111110010001001011101000110010
00111101111111011001110110100110
10111101101001000111111100101001
10111101101011110110111010110000
10111101101101000100011110010011
10111110000011010110001111001110
10111110001101111001110110110011
00111101101011110110010011000010
10111100010000011010011100000000
00111110001110001001110001100001
10111110001110111100011001101110
00111101110100011001010011011011
10111101111000101010100010110011
00111110001000011110100111000111
10111110000010000111101101011001
00111110001011110110010010010100
10111110000000000111101110100000
10111110010001101110101000101111
10111101001111111110010011010100
10111100101110011010101000001101
00111101100001111010100111110010
00111101111001110011100110100111
00111110000010000111001010100110
00111101100110110101001101001111
10111110001110010110011001001011
00111110010101101011010100010010
00111110001010001111000011010100
10111110001111111000011011110011
10111101001010101010011100001000
10111101000100110011000101010100
00111110001000100010100110111111
00111110000100011000100100001100
10111101100111110110111101011000
10111110000001110111101110010011
10111101000110101100100101111000
00111110001010010010111111111100
10111110000011101000111100000000
10111101110011100001100011010110
00111101100010100010101001111011
10111100100111010100010011000000
10111101110011011111100010001110
10111110000110010100100110101101
10111101010010010101011110011111
10111101111011100100001011110101
00111110001001010111101110000110
10111110000001100101010101111010
10111101111000000001000101111110
00111100111001010110000111010111
10111101100110101100001010011111
00111010110001100101111011001111
00111101100001100111100010111101
00111110001101011011100111000110
00111101111000000010011010001111
00111101100100110010011010111001
10111101011100001011011110011000
00111101101100111101101000100010
10111101011010001011110010000010
10111101100000001111110100101100
00111101010011011010010011001000
00111110010010100001000011001010
10111101110111110011100111101010
10111101101111010100101001010010
00111110001111110110011100100000
10111100111111100100100101011100
00111101010110101100110000100011
00111101001000111011010100100100
00111100110101001001101001010010
00111110010001000011011010111000
10111011110011110000101011101010
00111101100000110011101111011100
00111110000110110010011100011000
10111110000101001000101100010100
10111110010100101000101101010011
00111110001101101111000110100110
10111110010000110100100111010001
10111101101001110100010011000011
00111101110110001001011110001110
00111101110111001001010110110001
10111110010111100000000100101111
00111101100101110110001110010101
10111101100001011100111001000011
00111110000100110100110010000101
10111101000110111000001000011010
10111110000101111010110101110110
10111101110011010001110100011111
10111101101111111000000000010011
00111110010111001011111011101000
10111101011111110110111110111101
10111110000011110110101111101001
10111101001110011000010100011011
10111110010011011010111000001000
00111101011001001011110000001100
00111110001101101010111010101101
00111110010100101011010111100101
10111101110000010100110100111111
00111110001001010001101111101000
10111101111010100001111011101001
10111110010100001100000101000001
00111101111100101111001011010000
10111110000011011010100110001100
10111011100100010100001110111010
00111101101101000111110001000010
00111110001001000011110010101110
10111110000111101011111000111001
00111100111110110110101010001101
10111110000101000010000101111011
00111101110000110100011010000001
10111101100000001011001001010111
00111101101111100100001110010101
10111110001001110111010001010000
00111110010010110101010000101001
10111101100100001100101000001010
00111101111001111111000111001100
10111110010010001101011110100000
00111110000101010101001001111100
00111101111011000010100111011001
00111110010000010000001100000110
10111110001011010010011011011111
10111110000011010010110110000000
10111101001011000110001011110101
00111101100110101000111101001101
00111100001101110110100110001110
00111100101100101111001001100010
00111101111011000101010000010101
10111101110001110111000110110111
10111100111101101011010001010111
10111101101000101000010010111100
00111110001000100000011111111101
10111110000111010001000011100011
00111101110101011101111000111011
00111101100111011100111001011011
00111110000100111100011000000011
10111100111011000111001010001001
00111011101001000011001101110101
10111101110000110001010101100011
00111101110110101111011111100111
10111101100111101010001000110100
00111110010000100100101101000001
10111101011010011000010011000000
10111110000000110010001111011010
10111101101100101110110101111011
10111110001110010001011010000111
00111101001100100000110111010100
00111101010111100100101001101101
10111101110001001100001001111010
00111110000000010001010101001001
00111101101000011101001011111001
00111101100100010000011101100101
10111110000110100111110110100010
10111110000101001000111111110110
00111101110110110001001001100101
00111101101000001000101001010010
10111101111111010100110010101011
00111101110111001010011001101001
00111110010110001100101100101100
00111110010110010001001111000111
00111110010011001000111110110001
10111110001011001100011011010101
00111110000010100101010100010100
00111110000000000111001001010110
10111101101100011010111100111010
10111101010011000011111111101101
00111110001100111111101000110000
00111101100011111000001001010011
00111100111010010111111000111011
10111101111110101000110110000100
00111101001101101101100001101000
00111110001000110110010001000110
10111100110011101111001000100010
00111101001000110001101101110111
10111100100010010100011101101000
10111110000101011111001111001010
10111101001101011111100000000001
10111101100010000010011110010010
00111101000100010110010011111000
10111101111101111101111011111100
10111110000000010111100111010100
10111101111011100010101111011000
10111011110100010011011101001010
00111101110100110100111000001000
10111101100001100111111100000001
00111100101110010001111001110110
00111101111100000011111010111000
10111110000010011010111011001010
00111101011011100111010000010000
00111110001101011000000100101110
00111100101001011011001010101000
10111110000010100111010010101101
10111101110010101010101100111010
10111101101000110100110110110101
00111110001001000001001111110111
10111110010111011000111011101100
10111101010111011100010100110000
00111100101101110110010110111000
00111101111111110001101001010101
00111101100100001000011010111011
10111101100011000011000010001110
10111101111101100010001010001100
10111101100110101100001100111010
00111110010100101011001111111101
00111101100101011001001111011010
00111110010100010110001110011100
10111110000001101100010100111001
00111101101010000101000110001110
00111101101011011111110010000110
00111110010001010110001011011100
10111101010110001000001001110011
10111101111101101101001100101000
00111101101010100100011001011000
10111110000001011101000000101100
00111110001010000111110011110101
00111110000100011100111000111001
00111101001101000111101111000100
10111110001001101011100011010101
00111101111010101010011111001110
00111110010011111100000010011111
00111101001000111010001011110001
10111101011101001100001110110101
10111110010001100110101011111001
00111110001101010010100100001010
00111110000111110011010111010110
00111110010011101111001100010011
00111110010100001100010001110000
10111001111101011110000011110010
00111110001110111011101011101011
00111110010100010010011001001011
00111110000000100001011111010110
10111011101110110011101010100000
00111100111001011101101111010010
10111101101000011100100010101100
10111101110000100100110000110011
10111101011001100111101010010010
10111101111011100001110111011000
10111100101000100110101100000101
00111110000101000101000101101100
10111101011110010101101001001001
00111110000000000001110111110011
00111110001000011011001100100011
10111110010100010011110100100110
00111110001111100001100101011001
00111101111010101011011110110001
10111101011010000111010100011000
00111101111111101111000000110000
00111101101110011111110101000000
00111110000000110100100011010100
10111110001010000101011100111000
00111101001100000000011111111000
10111101011111000100011001011000
10111100101000110111100100010101
10111101100110100000110001011100
00111101100101011010000001001000
00111101101010001111001010011110
10111101101011110011011010110011
10111101101101100100000011101101
00111110001001101111001110100001
00111110000111000000110111000110
10111100011001000111000111001111
00111101101001110100010001001000
00111110001001111001001010011011
00111101111010101011000110100110
00111101100000100101111101011101
10111110000100101111010010111000
10111101110001100101010011010101
00111110000101010100000101010000
00111110001110111110111111110101
10111101111110111011111001010001
00111110001111001101010111101010
00111110010100011000010001001011
00111110010011100100101010000000
00111101110100010110010010010100
00111110000100111011100110010000
00111101011001001100111110011100
00111101110101101011001001100000
10111100100110101111001010110011
00111101000011011001100011110000
10111010101101101111101001101010
00111101110011011100011101001010
00111101100111010110101001110011
00111101110100111101110011111010
00111101001010111001101110001111
00111110001100101101000100101001
10111100101100101110110110011000
10111101100000110001101111000101
00111101100011111110001011001010
10111101001000110100010111011001
10111100100110101111010010110011
10111101100110100000110000011111
10111110010010010110010101011000
10111110001011001011100100111110
10111101000100010110100110111101
10111101110111011010101001110101
00111101101011001110000110100111
10111100110001111000111010001111
00111110000000100010000101011101
00111101000001001100100001011110
10111110000100000000011011010011
00111100111110010001010001111101
10111101110101001001010001001001
00111101000111111110110000000100
00111110000110111110011011001111
10111110000111101101001101110001
10111110010011101010001010111101
00111110010010000100001101100110
10111110001010011000110100100111
00111100010110110000101111100101
00111110000000001001110000100000
00111100111010111010110111011100
10111110010001100000011100110011
00111110010011101001100011111100
10111101110011111011010111110001
00111100110101111100101100010001
10111110010011101111001100111001
10111100111100110101110100111010
00111101100010001111101000011100
00111101001000001011110111011010
00111110000001111100010000100001
00111101001010100000000110001111
00111110000110100001001110010001
10111110000110001000010100110010
00111101101111010011100010000100
10111110001001001111101000001110
00111101111110000011100010101001
10111101001010000000011110111101
10111101001010110000001111001111
10111110010001111110110100111110
00111110000100101111111000101010
10111100100000010000010001100101
00111101101010001001010011011011
10111110010000001001011001001001
10111100101010110111001011011110
10111101010101111101010101011110
00111110010110010111001000111111
10111101110110011001011110000001
10111101101010111110011111010000
00111101110110001010100000000011
10111110010011001111111101100000
10111011111010001110101100000000
10111101101010111111011100001001
00111110000011100101110111010011
10111101111011110011111111110010
00111110000111000100000001010001
00111101111101000100111100100001
00111101010110111110010010100001
10111101010101000001010010011011
10111110000100111111111001000101
00111101110001011011100001110011
10111110001110001000001110000001
10111101011100100000110111001110
00111100101110101111001110110010
10111101110111011101011011110000
00111100101101010100101111110100
10111100000100111011110111110101
00111110010011100100110111010111
10111110000010000001101010110001
00111101101010101100000011001100
10111101001000010001000000111000
10111101011001111011001000100101
10111011101001000001100000111001
00111110001100101100010000000110
00111101100100111011001001111000
00111110000010110001111100000010
10111101110011011110111000111111
00111110001001101001110111111010
10111100001000111001101101101001
00111101001111100010011101010001
10111110010101101100001001011101
10111110001001001010010001001111
10111101100111001100101000010001
00111101111101010110100011111001
10111100011100011100001001011010
10111110001110110110101011111100
10111100101100100101100010010011
00111101111111000011101010111000
10111101011100000001001101111001
10111110010000110000100110110010
10111101001010100010100001011001
00111101111001111000001011111011
10111101110010000100101011110001
00111101110110000000100110010110
10111101111011111100111100101001
10111110001010000100101000000000
00111101101101110000010101011000
10111101110110010100000110111000
10111110001111101000111000001011
00111101001101100101000001101010
10111101000011001110101001000001
00111101000110100111110000011100
10111100011101100101001011000000
10111101111011111011000001111000
10111101011001101110010010110101
10111101110010100011101010100111
10111110001001111011100010101101
00111110010101000100110111001111
00111101100101001011011111011000
00111110000101000101110010011101
10111011111110001101000101010001
00111101111000011110100100110001
10111110001111011101000010000000
00111101110100000111110000011001
00111101110001111000011111001010
00111110001011001100110111101111
10111101101001000011111101010110
00111101000100010100111111110101
10111110010001010100111000110011
10111110010110011110010011010101
10111110000111101110010111100000
00111110000110100000001111110011
10111110001110101101000100100101
00111110010000110100001001110011
00111110000000000111011101101100
00111011110011111101110000000111
10111101101100110111010111011011
10111101000001110001101100000100
00111100101110001101010011000011
00111110000111111111110101101011
00111101010010100000001110111111
10111110010001100100010011100101
10111100111100001001110001000000
00111101101001101001110001100111
00111101010110011100000010000101
00111110010011101100010000000000
00111110000000011011010110110100
10111110010111101110001000010111
10111110000100000010100001010001
10111110010011010000101110010111
10111101001101001110010111100001
00111101010101010100011000001100
10111101000000101001111111000001
00111101001011101101111101000001
00111101111010001100001101110010
00111101110100101111001111100101
00111110001110001111100111101001
00111101101100100011101000101010
10111110000000110011000100110011
10111101110110000110010110000000
00111101110110100001011010100010
10111101100010101010001011000110
10111101101101011001111100100100
00111101101110110000010000110111
00111101100100100001001001000101
10111110000010001010011011010000
00111101000101101110100100111000
10111100110010110010111000111000
10111110000100110100101010101011
00111101110100010101010111000011
00111110000011000111110011111001
00111101100111110010000110110001
10111110010100010111001011000101
10111100011111101110010010100000
00111101100100100101001000010110
10111110001000100000101111011101
00111100000100100001101110001011
10111110000010101111111000111100
10111110000010001001000011100110
10111101110000010111000000111000
10111110001100110011010101111000
00111110010101000000010101010001
10111101100110011100101101011111
00111110000101000101110011111110
10111101111111111010010011001001
00111101010010111100011010010010
10111100101101000110010110001100
10111101001010100100000101001101
10111101001101110000111101011111
00111101110011010111001000010001
10111110000000011000110010100010
00111101000110001011001111111010
10111100011111111111001011011001
10111101110110100011001100100000
00111101110100101001010000011010
00111110000000110111001010110101
00111100100110101011111011111110
10111110000100010001001111100110
10111011111111111100001111100100
10111101001001001011100100110000
10111100011010011010010101001010
10111110000110101110011101111100
00111101110001000010100011001111
10111101010110100001001011000000
10111110010100011011011000110110
10111110000101101111111110011001
00111101110111011100101011110100
10111110010011110000110100000011
10111101111001110010100010111110
00111100110100100010101100100000
10111101111110000100111101100010
00111110000011011111100010110001
10111101101000000100011111111101
00111110010111011010000000001011
00111110010011011101110110000001
10111110001001111001011101001111
00111101110111011111111101011101
00111110000101101110111011101011
10111101100100101001010100011000
10111101110010110010101000011000
10111101011110101111111100110110
10111100100000000001001110011101
00111110001111110100111000111100
10111101101010010000001100000100
10111101011101011111001001101101
10111110001111111000101101001100
10111100110001010010101000010010
10111101101101000010110011101110
00111101101011001000010010010101
00111101011101010100110001011001
10111101110011100110010011001100
00111101110101110010110110011010
10111110001011001010011000100101
10111101011100000101011001100101
10111101011110011001000010101100
10111101110111101111101100101111
00111110001101111011011000000001
00111101101111100011010000100111
10111101101010010000010111111101
10111101111111001011100111001000
10111101101110011101011101110010
10111101111010010000110010000010
10111101001100010000100101001111
00111110010000101001111010010110
00111101110000000110010101110000
10111101101001110101010010101100
00111110000000000001010000101111
10111101111101011011110100110001
10111110001100010111011101011100
00111110010001111110010010000111
00111110000110010000010011111101
10111110000110110010001100010111
00111101001001100011011110100100
10111101011110011111110101001100
00111101101101100100101110001011
00111110001101111111011111110011
10111110000010100011010100101100
10111101110011010101100111101000
10111101111101111001111011000010
00111101010110011100100111110011
00111101110101111111101110100011
10111110001111010101100101011101
10111101100011000001001111010010
00111101110011011101010111001110
10111100001000100101111011100111
00111110000010110111100000000100
10111101011111110101101100100111
10111110010111010000111011000111
00111101000111001001111100101100
10111110010000011010000011100010
00111110000101010111000100001101
10111101101001001010110111101100
10111100000111010100000110101111
00111101100000101010110001010110
00111100001011000111100011111001
10111100110000101100000010101011
10111101110001011010011101010101
00111101110001001000011101111111
00111101001001110011000101000110
10111110010010010100011000101011
10111101011101111100000010001100
00111110010101110111001110100000
10111101111100011110001101111111
10111110000011011110100111111110
10111100101101110001110000001001
10111010100101100001001110111010
00111101010101101000101100010111
10111101000011001001011000100101
00111101101011110111000110011000
00111101001001111010100000010011
00111110001110110110011110000001
00111110000110101100011111100110
10111110010101001101001011100011
00111101111011010111100111101111
10111101010001011010000001110011
00111110000000111110011101010111
00111110000101100110001110011110
00111101010001101101111100111111
10111101100100101111111111110111
00111110000000111010110111100101
00111110001000001101100000111111
00111101101001110100110011001110
00111110010101100111011111100101
00111110001101101110010101010010
10111110010011110111011110111110
10111100010001110001000000011111
00111110001000011110100111100101
10111110000000100001001010011101
10111110001100001100110101011000
00111110001000110011101111100001
10111101010011010000001000101010
00111101000000110010100110000000
00111110010011000101011101010011
10111110001110111110110001000111
00111110001001100000100101000010
10111101100001000000000100111010
00111101100110100000100101000000
00111110001111110010100000100011
10111101100011001010111111111110
10111110001010101110000001111010
10111110001011001010100100110011
10111110000000110010001111111010
00111101110101110110100010110000
00111101001000010100000010100000
10111101101111011110111110000100
00111110001111101111111001101011
00111110000110110011011010000011
00111110000011001011000111101011
00111110001100101010011110011110
00111110000011101011111010101000
00111110010011000001110111110110
10111101110010010010000000111010
00111110010001110100101010100011
10111110010011101111111000100010
10111110000111100000000100010101
10111101001110110100000010110001
10111110000101010011010111011100
10111110001010001100111011000101
10111101110001110111110011010110
10111110000101001000010011111011
10111101000100000000011001101110
00111110010010000010010101011111
00111110010001100011011011010011
10111101101011001110111010100001
00111101101000101000110111010101
00111101100110100101111110111110
10111110000011010000101011001010
10111110010100000100101001111110
10111110001100101100110100010100
10111101101101110001010100011010
00111101101100111101010001010011
10111101111111111011011111111000
00111110010010000101100010001111
10111101011111101101001101111010
10111110010010111110011100111010
10111101100011011010111100110010
00111110001111100000111000101010
00111101000111111010100001010101
00111110000110110100010111010110
00111110000001010001011010000110
10111110001100000111111011010011
10111101011000110101100011011000
00111110000100011011101011000001
00111110001001011011110010101011
00111101000100110011100110001001
00111101111110101010111001101000
00111101101010110010111110010100
00111010000000000100101011101000
10111110010011110000011001100001
10111101101111001101000001000000
10111101001111011111000001011101
00111100110010111111110101101000
10111110000110110100010001000111
10111110001111100001001001101111
00111100010111000110111100010010
10111110010010001010110001101011
00111110000000001000000101010111
00111101111110010001001011001011
00111100010000010100000001000011
00111101111000111011011101101100
00111110010011010010011010010110
00111110001010111100110000010010
00111110000000001001100111101000
10111101111011001000100010110101
10111110001010000011001001000000
00111110010001100110000010000001
00111110010000000101011110110111
00111101010011000001011011111010
00111101100000101011001111110110
10111101110010001100111110110000
10111011001111100000000000011100
00111101000100100010001010000001
10111100110110101111100100011100
10111101111111011111010001011111
00111110001001110111100000110100
10111110001001011001110000001010
00111101110000111000100001010011
00111110010011011001100010011001
10111101011100101011101011100011
10111011100000111001111110010001
00111100011011100011111011110011
10111110001110010100110111110011
00111110000000010101111100111011
10111110000001011010100101111101
10111110001101000000100000000011
00111110000010111011010110101010
10111011011010111100011010100111
10111101110100101001000110100110
00111101000010001111101101011011
00111110010011110111001110011011
00111101111101000101001111000010
10111100001001101110111111101011
00111100101111101010000000111110
00111110010011000110101100000110
00111101101111101010111000000101
10111101110010001011000001011111
00111110001100010000011101101000
00111101111110111011101100101100
10111110001100001100010011110111
00111110011000000001100101001001
10111011001000101100111111101011
00111101100111100000100111110111
10111110000011100011001110001011
00111110001000100000010000011001
10111110001111101101011010010111
00111110000110010010111010010101
10111101011110000100001010010011
10111110000100011110101001011011
00111101111010000011000110010001
00111101110010001100000000101111
10111110000100000000100100000000
00111101010111000111000111111110
00111110000111000100100000111101
00111110001011110001000001110110
00111101011111100010111110100110
00111101100000001111010101011111
00111110000011001010001111011100
10111101110000101000011100101011
00111100111001001111001101101000
00111110010000001101100000111001
10111110010100010100011110100010
00111101111111000100011110100111
00111110000110100000100010011100
00111110010001010110001110011001
10111100100010000100011001110101
00111100110101010010001000110100
10111110000001111011000100000101
00111101110101111011010000110010
00111101011000011110110001011110
10111110001011000110011010111010
10111101001110011000100111110101
00111110001101110100011010000011
00111110000010110110000000001001
00111101110110110001100110100010
10111101110010010100110100111011
10111110000100110011101010111000
10111101100110000001110010001101
10111101011011000110100100011010
10111100111100010100000011001110
00111100010101100011011101101111
00111110001000110100101110011001
00111110001011111010000100001111
00111101101110010100000011001100
00111101110001011001100100001110
10111101101110010110000011011010
00111110000000010011010010000111
00111110000100111011001111000010
10111100100000100011100101101010
10111101100110110101010100110100
10111101100010010010000100010111
10111110010000011110010010001011
10111100010010110101110001001011
00111101100111011011011110000011
00111101110000001001010111010001
00111110010101001011010001100011
00111100110011010100100100010110
00111101111111111000000111000101
00111010101100111000111100101101
10111110010101001110000010011100
10111110001100011000010111011001
00111110001110110111111100000101
10111101001100000001100101110010
10111101111000010111001111000010
00111101101010000000001000001111
00111101111001101011000010100111
00111100111000110111110011111101
00111110000010100101010001110111
10111110011000000110011110011100
00111110000011100001011111111100
10111110000000111010110010100101
00111101111010011111000001101100
10111100100011110101111100010001
10111101001010001000010100010110
10111110001001100100111100000111
00111101100010111100110101011101
10111101101110101100010011001101
10111101100101011001000110101111
10111110001001101000101110100000
00111101011010100001111100101111
10111110001101000100010110011101
00111101100000110011101101100110
00111110010110101011001001000001
00111110000111001100101000100000
10111110001010000001101101010011
10111100000011100110101101010110
00111101010001101111010110100001
10111110000101110111001110111100
10111101110001100000110100010000
00111011110110011111100010010101
10111110001001010110010100101100
00111101001111111100010101100111
00111110010001111101001111001000
00111101110011101011110010101001
10111110001111000011001000011110
10111101101101111010111000100010
10111101101100111000110001111000
10111101101100000110000001011010
10111101100101111110000111101010
10111110001100110110111010010101
10111110010111000000011111111111
10111110001001011111100101111111
00111101011111111110111101101001
00111101110000000011110111101010
10111110000101101010101000010111
00111101111011011101111110011010
10111110010011000111100111110010
00111101111011100011011101110000
00111110010010001111100101111101
00111110001111010001011010101100
10111100100110000100111001111101
00111101111000100010110011010100
10111101111001011000100001011101
10111101000000011001000000011001
10111110010011100000010001111010
10111101111110000010001010111110
00111110000010010011100111100111
00111101100101110111011000000010
00111101000010101111001111001010
10111110000110101111110011111000
00111110001101111000101001110100
00111110000110010110010010110001
10111101000001011010000011001100
00111101111011111000001000111101
10111101010111100111000011100101
00111110000001110101001000011010
10111110010000010000010010101001
00111101101010010100001110110100
00111101100100110000110011111000
00111101010110001000101100000111
10111100100111010111010111001011
10111110000000101101101110010111
00111011001110111010111110011011
00111110001010001111101111100101
00111110001001111111110111010011
10111110000011000111001110110010
00111101010101111001000010100001
10111110000101001110100011111011
10111101110111100000011111100100
00111110001111000101111010010001
00111101111011100111010100110011
00111101011111010110111001000000
10111110001000000001100001101011
00111100011110010110110101100110
10111110001001000000111110001101
10111101101011010011111001110110
10111100100010010110111011110000
00111101100001000011010000001001
10111101010010101110110101100110
00111101111110100010011111101110
10111100001111001010010111100101
00111110000101110110111111011101
00111110010100110111110001001001
10111101111111101011100000101010
00111101100010100111101011110100
10111101100111010001100000000111
10111110001011100001000101000111
10111101101000101101111011001011
10111101111111011111000100100101
00111101101010001001011010111011
10111101100101100001001001001111
10111110001000001101000100001100
10111110000110101000011000100100
10111101000011000111011001010000
00111101011101010111101101110110
00111101011010111000000100000101
00111110001111010011100010010010
10111100100001010101010100000111
10111110001000100010011000101111
10111110001101101011011000010001
00111101110000011010111111001010
00111100100011010000101000100110
10111110000011010001100110111000
00111100001111110010000100010011
00111110000000001111000100001111
10111101111101111011001000100010
00111110001110100001010010011011
10111101011110100000001000100011
00111110010101001001011100000000
00111101110111011011011000111010
10111101001100010000001001101001
10111110010100010100110110100001
10111110001101001100011101000001
00111110000011111011110001100011
10111011011101111100100001100001
10111110000101101010110000101010
00111110010101010101100011100111
00111101101100001101110010000011
10111110010001111111001011111100
00111101111110101110010010000001
00111110001100000101000101010101
00111110001110001110101001010000
00111101001101110101110011101111
00111110000011111000011111101110
10111110000001010101111010100110
10111101010011111101011111010100
00111101100010101000010100101101
10111101101100111111100100100101
00111101101000000001101010111011
10111110000111100111011000001101
10111110001101001101010101000011
00111110010110110111000110011110
00111101100001110110011111100110
00111110010011101011100110111001
00111110001001010111101011010100
10111100010010111111000000001011
00111011010110001100110101111000
10111101111000101000110010110010
10111101110011001011101110000110
10111101110010101110110101101111
10111101011101110110100110100000
00111101011011100111000011011010
10111110010001101111111100011100
00111110010110010101000010001000
10111110010110111001010100001111
00111110000101111011110100000110
10111101101010111011100110110010
00111110001111010111001010111000
10111100001000111001101011111000
10111101101100000110101000001000
00111101011100101001000100011111
10111101010000000100101100000000
00111110000111011111111110111111
10111110000100110000111101011101
00111110000110001000011100101111
10111011101111001000001101111100
10111010011000111111100101001110
00111110001110100110100001101001
10111101110111011110001110000011
10111100101101100111001011101011
10111100100111010110001101010001
00111101101110000110101010111001
10111110010110100011111010110010
00111110001011110100110101110011
00111011100101011010110101000000
10111100111001000001101001011101
10111101100011011111111110010101
10111101100011000110110010100100
10111100111000011111100101100111
10111110000110010101000011011111
00111101110100010000101011101001
00111101101111011011111000000100
00111101111010110101010111010001
10111110000000100110100011110010
00111101010010111011010001001010
00111110000011100101001101000110
10111100101000101011100011000000
10111101100010001000110111100000
10111110000000100000111010111101
00111101110101101011101001101000
00111110010001010100110011111011
10111001101101100011010001000100
10111101011111011100110100001001
00111110010010101000001111010001
00111101100110101100100001010011
00111101110100111110100010011000
00111110000110101101110001001011
10111101111001011111001010101101
10111101100011011011110011101011
00111110010001010101011000011110
00111110000011001001010000000001
10111110001100100000001010111111
10111101111011001111110110101011
00111101001100110100001010011011
00111110010000001100100010010000
00111110010110001001110111011011
00111100101110100001010111111000
10111101111001100000101101011010
00111101111011101100111001011010
10111110010010010001110111001111
00111010011110010111100010101100
10111101110011010100111000101011
00111110000010111011110000010100
00111110000111111100001011111010
00111101100000010101100100001110
00111110000101111110100001011011
00111110010011010110110101111001
00111110010000100101110101000001
10111101010001001111101101111111
00111100001110100101010001000110
00111110001101000100110100001010
00111101111100000110000110011010
10111101111101001110111111100110
10111100111101010101100101011111
00111110001000100011010001101100
00111110000101110100000011011011
10111110010010001011011001110011
10111110010110101111110111010011
00111101111000010011100101001110
00111101111110111010111111101001
10111101010000111110100100110101
10111101110110111100111101010001
00111110000001111100000010100010
00111100000111000100010100101001
10111101111011011111011011000001
10111110000101010111001011010000
00111011111010011010110101001010
10111110000111110010101011101111
00111110001110010110010100001111
10111100010110100100011101110111
10111110000101001000001110011010
10111101100100000111110100100000
10111101100001111110001111100101
10111100100001111111001111000110
00111100011110001000110000010110
00111101011101001000011100001011
10111110001100010110111000101100
00111101100101111001111000000010
00111101000100101010000101000010
10111110001011101101111001010000
10111101101101010100111001001000
00111100010100011011010000010000
10111101111011110100100111000000
00111110001101110111010011001111
00111101010110001110010111110100
00111110000100101011111100001001
00111101011110000000110011000110
10111011100001100001100010100111
10111110000011100010010001000000
10111110000000000011100101001101
10111100101100010101110101011101
10111101111001000100110101010110
00111101111110100101101100110011
10111110010000001001110000010101
00111101110100110000010000001000
10111110010100000110001001111100
00111101101010011000111111100100
00111110010010100011101101010101
00111101100010100010010110001001
10111110000101010010100101000000
00111110010010101101001101101000
00111101111010011000101000010011
00111101000101110011000010001000
10111101100001001111111110101100
10111101010100110000101000100111
10111101111000011000110001111100
00111100110010110001110000011011
10111101110110011011111110010011
10111110001000100101001001110001
10111110001001100111001000000001
00111101101101101101100101110100
10111110000000101011100111100001
10111110001101010010101100000101
10111101110111110010101001101100
00111101111000010111110100110110
00111101010011100010110010110111
10111110001100011100011110101000
10111110000011001000101011000001
00111101110101100110111101011111
10111100110011111010111101110100
10111101000010011010100100111000
00111101100000111111110000110110
00111101010111001100101001010000
00111100000010011101111110000010
10111101011010000010111100110101
00111101101110001100101001011101
10111101001010110011100011010101
00111110001000110011011011101111
10111110010001100000100110001101
10111101111011110011101101110100
00111110001011110000111101101001
00111101011011000110011010010111
00111101101100011100010111101110
10111100110101100011100110111000
00111110000101111101101001010110
10111101101101101000010011110011
10111101110001101000011000111010
00111110010010110010101011100000
10111100110110101001001110100110
00111100111000110111001101110110
10111101111001010010000101010011
10111110011001011011010010001001
00111101010101111101011111100111
00111101010111000111000110101100
10111000101101010101011101000101
10111110001110111110101000011010
00111101110001011001110001111000
10111110000000001000011111101110
00111110001011001000010011101010
10111101110010110111100001011010
10111110001111010011010000011010
00111110000111010000000000110110
00111101101000000010010110011001
00111110010101101110100101010010
00111101001001101000101001111000
00111110010011100010001100110011
10111110000011011011010010101001
00111110010101000111001011100001
10111101101111110000011101011100
00111110001000101100100100100000
10111101111100100100111011000000
00111101101100110110001101101011
10111101111110000111001001000000
10111110010011001011101000101100
10111101101111101110111011011110
10111101110100110001010100111110
00111101111101110100010111011001
10111101111111011011111101111000
10111110000001010001111001100100
00111101110101000101001001001000
10111100110010001011110001101110
10111110010110001001101000101001
10111100100000011011101101110000
10111110010001001101101001111111
00111110010101011001000111101001
00111101110000101101000011110011
10111110010010011111001111100010
00111110000111000100100001000100
00111101101000001000010111100011
00111010110101110111010110001101
10111110000111000010111110010010
10111100010000100000110101111100
10111110000110001000000010011100
00111110000011110101000111111100
10111101110011010001101100000011
10111110010011101011110110100111
00111101000011000100100101110001
10111101111010100100101001111110
00111101110001011101111100001100
00111110001001111001000011101101
10111101101000100001010011111100
00111110000001001110011000000011
00111101101011000011111011100101
00111110001101000001100101110111
10111100100000110011101110000100
00111101000001101111110100010101
00111101111010111000101101111010
10111101011000001101110001101011
00111101110110010101110111000111
10111110000110100000011101100011
10111101010111100111000011100111
10111101110001000111110110101110
10111101100101010011000000111100
10111110001100011010110111100100
10111110010001000111101101001001
10111101101110001000000100110100
10111110010011110100110011101100
10111101110011111111101010010001
00111101000100101111011000000100
10111110010110010010011001111000
00111101110110101110011010010110
10111101100100100011101111110110
00111110001110000100111010111001
10111100001110000100000110011001
00111100001111110111100111010110
10111101010111111110110001011001
10111101101000010000010001111100
00111110000011111000001011011000
00111101111110100011011100100110
10111100010000011101101001010100
10111110000000111101111100110110
10111101001000100100000110010001
10111110000011111101011110110000
00111110010100100111111111001001
00111101000110111110100110111010
10111110000010001101111110000001
10111101000011110011101111101110
10111101110011101000100001110110
00111110001110100111110010101101
10111110000000100011010010010100
00111110000000100101101100011111
00111110000111110011110000101100
00111110000101010101010011110010
00111110010001111011010100111010
10111110001101101001001000100100
10111101111010101000010100101110
00111101100101001110110100000010
10111101011000111110100111000110
00111101110010010101010011111010
00111011000000101110101001101100
10111110010101011111001001101010
10111110001101111100000000111001
10111101101111100110101101011001
10111100100101100000110100111000
00111110000101111111111110011100
10111100101011011100001101011001
10111101110100101101000000010101
10111010111000111110101000101110
10111101100111000101111000001100
00111101110100000100000110011000
10111101110011111001001001011100
00111110001001000011000010000101
00111101001001011100100101000011
10111100000111010101101001100111
10111110000011011011101111000101
10111101001100000001100010110111
10111110010100000100011100011111
00111110000011100011111010011000
00111101110100001001010111001000
10111010101000110100100000001110
00111110001000010000101111010101
10111101111001001010101111100011
10111110000100001000000010110110
10111110001101110110010100010010
00111110001100110101111011110110
00111110001110101010111101110000
00111110001000010011110101001100
00111101000100100011011110110100
10111110000010101111001100011101
00111110010000000110000000110000
00111110001101010111011110101000
00111110000111111111110010111001
00111110001011101010110110011110
00111011111100110101110100000000
10111101111010110111010011100101
00111110001101010101101011000001
00111110010100001001100010001000
10111110000111110000101010100010
00111101111101000010001000010100
10111110000010010000010101000000
00111100100001011111101100001110
10111101100000111000101111011111
00111110000000011101101001100101
10111110011001101110111100010100
00111101111100111001111001010001
00111101110100011001100111010010
10111101100100000011100110001011
00111110011001010001011010110111
00111110001010011010110100110111
10111011011000100110110100011011
00111010000111000011001100110100
10111100100111110001101100101100
00111110011000011000000110110000
00111110000010011110000111111111
00111100101010001101000001010101
10111110000011011110011100111000
10111100111111000000101100010011
10111110010110111000001011101110
10111110010101010111110000101001
00111101011011110101100001111010
10111101000111101111100001010000
10111100101100111011100001110011
00111100111010110000110000111100
10111101010010000010110010110101
00111110010101010111100100100100
10111101101100011010101110010111
00111101011101001100000111100110
00111101011111100010111101001001
00111101000101000010100010000101
10111110011000111011100101010110
10111110001011101110101001010010
00111100011111000010000110110010
10111100111111100010010001000000
10111110010001111000000011100011
00111110001011000100011101000111
00111101100101001010001101100010
00111110001010001101010000110000
10111110000110110010111011001111
10111101101100001001100101111000
10111101001110111101010000111001
10111110010010000001100101110011
00111110010100111100111111011001
00111101101001000001011100000111
10111101110001101101011010001111
10111101100101100010100011101100
00111110001110001011100001011111
10111110000110011101110011001101
10111101100001011001101111100110
10111101110000100100001110101001
00111101111100010001110100001111
10111101100011110000111010100001
10111110000010101011000001100111
00111101011101011100000100000100
00111101100110001010000101101101
00111110000101011100110110011011
00111110000011001001000111011010
10111101101000111111001011010010
00111101011010001010001001001100
10111101100010010010001110010110
00111100111010011110100101100101
10111110010110101010111001011101
00111100011111010001100101101100
10111100110011101000000001010101
00111110000101101001100010011110
00111101101110001011010010001101
00111101110101010001001010010110
00111101111011000011000011101001
10111101110011110100100000101111
10111110010110001001010111001001
00111101101011001101001000100101
00111110010001000111010010011000
00111110010011101111101010101101
00111110010010001101110011110010
00111101110011011010110001100110
00111101100101001010101000100011
00111101101011000001000011101010
00111110010111111000100000000100
00111101100011100110010001110011
00111101010111101111101010011111
00111101101010000100111100011000
10111110000110010100010001100001
00111110001001101111100101111100
10111110001011001001001010111110
10111011000011100100101000101111
10111101001110010101000100100100
10111110010010011101010110011011
00111110010110000100111011010101
10111110000110111111110010111001
10111101111011101010000101100100
10111110000001110001111110010011
00111110001000100101010110010011
00111101010111110001101010000110
00111110001100110110000101110011
00111100000011010110101100110111
10111110010011010000111000011110
10111110001000101001111011101001
10111110010010010000100100100001
00111101111011011110110010100100
10111110001010001100000111000010
10111101111010001011101010101010
00111101110110001110110110110100
00111100100011001100010001010100
00111100111101110100000010110101
00111101001001011000010010011000
00111101101111011000101001011000
10111101010010101001101000001110
00111101110001110001001111010011
10111110000101000110111101110111
00111110001100101110110101010111
00111110010011001011011111101100
10111011010000110110111100101101
00111101110100011010011000101111
00111110001110000101000100111100
10111110000101101110111100011111
00111101110111111000101011000110
00111101101000110101100000001000
10111110001110101011011000001110
10111101101000011100111000111011
10111101000101000101011110111101
10111101000010100000111001110100
00111101100001111101000100111100
10111110001110010010010100000111
10111101100000111101011100000011
10111110010100110101001000100101
00111101111000000011111011011001
10111101011101010000110001000000
10111100001011110000010111111010
10111110000011110101010010001000
10111010110000001100111011000010
10111101100110000001001001101100
00111101101011011111111010010010
10111101001000000001000110001010
00111101010000101000100111000010
00111101000000110001111110001010
00111101100010000111001101011010
10111110001010011100000110100110
00111110010011101001100010100100
10111110010010011001000011000111
00111101100100111001000001111101
10111101111111110010111110001011
10111110001001000101001111110100
00111110000001000011000010110101
10111101000100110011011000000100
00111100110101001100011111100100
10111110001101001000010101001101
10111100011100111010111001000100
00111110010001110111000100000100
00111101100100100000101010111010
10111011010100111100100110000000
00111100010001101000101110010000
00111010000110001001110100010000
00111100110001000010111000010110
00111101000001010010001100011011
00111101101001101111010011100011
10111101101010101111111001000001
00111101000100000111010110000111
00111110000001101101110010010001
10111110000010101101100000011111
10111110000001110110010101111000
00111110001100000110110110111000
00111100000011010111100010010000
00111101100010011000010110110100
10111110001111001001110000110110
10111110001111100010110100110110
10111110010011000001000010110000
10111011111010100100001101101011
00111110010100010011010100010011
10111110000001111011000010000011
00111101010110101010010000010110
00111101110001001000101001000101
10111110001111000010011111010100
00111101110010100010010100100101
10111110001101110011100111010001
00111110000011101001011100110010
10111110001100000111101000010000
10111101101000100100101110111100
00111101110101100011110000101111
10111110010111101010000110000101
10111110000101011000000110000010
00111101111101111001010000010011
00111110010001101100010010000111
10111101011110000010011111111110
10111101110111011100010111110110
00111101011001011011101100011101
10111100100100001001000011010101
10111101101000011100100011110110
00111110000100011101111101010011
00111110001010010000111101000000
00111110000101111110111100000111
00111101111111011001110101001100
10111110000010010101011011110101
10111110010011110111000011100011
10111100011100001001000101111111
00111101000001000011001110100101
10111110000010010111101010010001
10111101101000100101110011011100
10111100110101010101110100011101
00111110010001110101001110010010
10111110010010000100100010100010
00111110001110010110011010100111
10111100110110100110100111111010
00111110010100110101101010001101
00111101010111110011000001011100
10111110000001010100001111111011
10111101000000111011110010100110
00111110001011110011011110111111
00111101111111110100010000001101
10111101110101111111101000011001
10111110001000110011111111101001
10111100110100010011110100110010
00111100010000101000000000001101
00111110001000011100110100010101
00111101100010001000111011100110
10111101001010100111001011110011
10111110010011111000100100101010
00111110010000001101110100001111
10111011111010010110010110010011
00111101100011001001011110011101
00111100001111011111110101101101
00111100110110010010111100000100
00111101110100111000100111000111
00111110010101011100101001110110
10111110000011010000010010001010
10111110001010100010101110101110
00111110010010101100011110000111
00111101101111000001101101011010
00111110010010100101110110011001
10111110000100011110100001010010
00111100001111111100000100101011
00111110010000101011110011000100
00111101001110100010001101001011
10111100010110011001101000000100
10111101101011011011110111110110
00111101100001101111000111111110
10111100110111011100011111101010
00111101101000011101010100011111
00111110000001110111001011010001
10111101111000000110001001010000
10111101010010110101110011111101
10111101000101000111000111110000
10111110000011000001111101101100
00111011101101010001010000100010
10111100101010001100001111111011
10111110001001100011110110011001
10111101000100110111010101010010
10111110000001000001010011011100
10111110001010101010001001101110
10111101010000010101110101110010
00111110001011011110111110001001
10111110000011111101010010111100
00111100101001110001011011000001
00111101011010011001100010101010
10111101111101110000010101100011
00111110000010101001010100101000
10111101100110111011110100110001
10111110000110000110111011000110
00111101000101101110001010001110
10111101101011111110111110001001
10111110001001101011011011100100
10111101111111000011100111001101
00111110001111010111111000000101
00111110000010010111111110001110
10111110000001100111000000010011
10111100100111100011111011111000
10111101110001011111001100100011
00111110000001100110010011100010
10111110001001111110001010011010
00111010001100001000011001011001
00111101111011101000011010000110
00111110001011010000101100011000
10111110010110000111011001101011
10111100011000101011011010110101
00111101101001001001101110011100
00111101011001010100011010010110
10111101100100000001100010111111
00111110001101111101011100011001
10111101110010010010110110010101
10111101010001010101011000011001
00111101011000111000001001000101
10111101101110010100000111010101
10111101111011001011000000000111
00111110000010111110101110011001
10111110001011010110111010001111
00111110000101111101000110111101
10111101111001000111010101111110
10111101101000010011000111111001
00111110001001010100111110001111
00111101110111110010111100101010
00111110001010101011001111101001
10111101010110111000110101110110
00111110011000010111111000010110
00111110011000000110001110111101
00111101000100111100000110100100
10111101110101010001011110101010
00111110001000111010111001110001
00111101100110101101110111000010
00111101000010110110100001010011
00111101100101011010010011000101
00111110001011111011000100101101
00111101100000010011010100011101
00111101100000001010101011000010
00111101001110100110110011000010
10111110000000010101001111000111
10111110001011111000111101111011
10111110001001010111101110001000
00111101001101100101001000001000
10111100110001101001100001101100
00111100110010011110010010000001
00111101111000011010100111101111
00111110000000100101100010001010
10111011101001110001001110011111
00111101100110111110000010110100
00111110000110111101110000011000
10111110010101110110011110110101
00111110010100001110100001110000
00111110001001111000000101101001
00111101110100101011010110011101
00111110001000110011111100001001
10111011001111110000101011011001
10111101101111000110001111111000
10111101001101110010011100010001
10111101110111001111010000001100
10111101010011101000100101110010
10111101101100111110110100100011
00111110000100011010111011100000
10111101000110101101100101100010
10111101101111000101010001011101
10111101100101010011001101010010
10111110000000010100000001100110
00111110000100001000111001001010
10111101001101011101010011010111
00111100101100001000100011100001
00111101011111011111111010111100
10111011101100111111111000000101
00111101111011101110001111000101
00111100011100110110110010011000
00111101010001001001010010100110
00111101110001101100011001100010
00111101111000011000110000111110
10111110001110001101111110001101
00111110000001010011111011100011
00111101111101110111101100000100
00111110000000111110010101011000
00111101001011001000001000101001
10111110001010101101010000000001
00111101101001101111110010111010
00111101010111011010101000101100
00111100101101111011010110111101
00111110000000111111001111101100
00111101111011000001010001010100
10111110001111001000110001101000
10111101000001010000111000010101
10111110000110110110100001100101
00111110000001101100011001100001
10111101111100111001100001011100
00111110001011001111001011100100
10111101010010110100000000000001
00111101101101010110000000100011
00111110010000101110001100111111
10111110000001000010001011011111
10111110010010001001001001001010
10111101100000100101011111001100
00111101001001101000100000100000
10111110010101000100101011100000
00111101110110110100000101110110
00111100110111000000001001111111
10111100010010010100011110111010
00111101111110110110010111100001
10111101110000010000000010011001
00111101100101110101010001111100
10111110001111110100100011110110
00111110001010110101110011111011
10111100100001001001111001011110
00111110001111010110111001000010
00111101010110100001100101100000
10111110001111100010110101111010
00111101000111000110010001000101
10111101001110011111111000010100
10111101110110101100101100000101
10111101001100010101110100110011
10111101000110100000111101011010
00111110000000011001101100000001
00111101000101100111100010100110
10111110001010001110111101101010
10111101100111010110111010110000
00111110001001001011100011000011
10111101001001000110100110011100
10111110010101011000111001110100
00111011110100010010101010010011
00111101001000101000111011100100
00111100110010111101111111101001
10111101010111100001111000111101
00111110000000110001110010101110
10111101011010011000111001100100
10111101011101001110001001110101
10111110000110011100001010011000
00111101110011110000001001111101
10111101000110000100001100100010
00111101100000101011101111001001
00111100100011010111110001110010
10111110010101010011101110010010
10111101110111010010010010111111
00111101100100111001001011110000
10111101111010000101110100000110
00111101100001111101010111101110
00111101100110011011110110100011
10111100001010000001001111111101
00111101001001000101001000101110
00111101110100010110000100101110
10111110010100000111110010101111
00111101101101010001101010101011
00111110010100111101101111101001
00111011111001101111101100001101
10111100110001111001000111011110
10111110010101111110000001011011
00111110010010110101101110011111
10111011100011101000111100100000
10110111110101000110100000011101
00111110000011001000100001101011
00111110000101110000100011011001
00111101111101110011001000111101
10111110000111001011001101011110
00111110000111100111100011101000
10111110000000010110011001011011
10111100000001100010101001111101
00111110000000110011000100110111
00111110010101100111101011000101
10111100100111101100110001101001
00111101110111110010000110111110
00111110001100011011000100111010
00111101101010101100101100110110
10111110001010001101100001100000
10111101110001010101000110010010
10111101011110000100001101101001
00111101100010001111010110100011
00111100101010001000111100111110
00111011101001111000111110000000
00111110001010001110010001100111
10111110010110010000011100100111
00111100101000110101100001000000
00111101100110000000000001000111
10111110001100110010000000010110
10111110000011000000001100000110
10111110001001001110100001101110
10111101011000011100110100001011
00111110000010110001010100101100
00111101100101000001011110011000
10111110010111101000011111010000
00111101101001000010001110111011
00111100010001110010011110110011
00111100110000110001111100000001
10111110001110100100011101100100
10111101110010000001111001000001
00111101110001100001001101111101
00111101101101010001111000011011
10111110000010011111101011001100
10111101101011000101110111111010
00111101000010010011001101100010
10111100111101011100011011001111
00111101111110111100110010011100
10111101110101101011110010101011
10111110000011100001101000011100
00111110010010111111110101100111
00111101110111010000000101101010
00111110000001000010000100001000
10111110010011110111111101011011
10111110010001111110001100011110
10111101110010110111000101110100
00111011111000001101011110000000
00111101000101101100101100110100
10111100010110010110110100011010
10111110000000000001011010011010
00111110000010100101100100100100
00111101011101110101111011001101
00111110010000100001011001111100
00111010100101010111010100111010
00111101100111011001000100011011
00111110001001111011110100100001
00111101011001011111000001001111
10111101110001000001101010100000
00111110000100000100000011010011
10111101100100110110010011001110
10111101101101010010110011000101
10111101100100111110010011110110
00111110001010011000111111011000
10111110010001111011110011010100
00111110001100011000110001010011
10111101011111110001101101011110
00111110001000101010110010101001
10111101111001101000101001111100
00111110010111111110011010010010
00111101011001010100100111111111
00111100010001000101100101110000
00111101010000011010100101010011
10111101100010010100101111100001
00111110000011100001110100110100
00111110010010111010111000001010
00111110010000110111101111110000
00111101101001100001101000100100
10111110000100110000110001010101
10111101001101001111101100111011
00111110001110110110110011000001
10111110010000110101011100001101
10111110001011111100110010011110
00111110010101001010101010000101
10111110000111001101100001010110
10111101110001100011111111001100
00111110010100001000100010110011
10111101000001010100100101100000
10111101100010110111110100011011
00111110000001001110110000110011
00111100110011101100001001101011
10111110001010111010011001010101
00111101111010111010110001110010
00111100111000110000010111111010
00111100000100100100001111110000
10111100010110111001010000011111
00111100100101100110010011001011
10111101011010010101101110101000
00111110001100001101110110110111
10111010101000100001101011110010
10111101111101110001110001011100
10111011110010101101110100010110
10111110000110011111111000000010
00111110010110110111010110100000
10111101110001110111110110111100
00111110010010100111000110010011
10111110000000001111111101101001
00111101110101111000111011110010
10111101110110100000111001110111
00111101111100110111110100011101
00111101111110011111011000001010
00111110000100010100001000100101
00111110000001010000100011011010
10111101110111110110000100111111
10111110000101010110010001000010
10111100000111101100101111000010
00111101101010011001011010101110
10111110010011000000010001011001
10111101111100000011011001010100
10111101001100101010000010101100
00111101100110000111110111101001
00111101110011010011001110100101
00111101101101011101110110110000
10111110001010010010100101001010
10111110001011011011100001010010
10111110001110100100010010101000
10111101100000011010101101101011
10111110001110100100001010000000
00111110001011111000101010001110
00111110000100011111001011101011
00111110001001010011010110111000
00111101010110010100100011000101
10111101011110110010110101001010
00111101001000101001110110101111
10111011101101111110101001101011
00111101100010010110111000111010
10111100000001001101001001100001
10111101110110011010110010110011
00111101101101100100010001010011
10111101110001110100110110110000
00111110000011011101011010110110
00111101010001100101100100110110
10111101101010111101010100000011
10111101111010101010011100000010
10111110001011010011110110101111
10111101101111010011100111011100
00111100111101100110101001010010
10111101101111101110010001001111
10111110001110111100111010001001
00111101111100101000100100001101
10111101110110110011000100101111
10111110000000101101000000010110
00111100111100001011000100010010
10111110001100000011001000000101
10111110000111011001001000000100
10111011100001010101100100110010
00111110001000111100101110101011
10111101110000110111101010011001
10111110000001010000011101010111
00111110000111001000111001111011
10111011001111010010101011101010
00111110010011000000011011010000
10111110000010101011101001000111
00111110001010111010101001110000
00111110001001001001101010001001
10111011111000000110011011110010
10111100101011111000011000111111
10111110000101001001110000011010
00111101011000100001111011000010
10111101111010011011011011100000
00111110000011001000000110001011
00111100011110111100001010000111
00111101111111101101111011110010
10111110010110101011011100011011
00111110010000101111111000001010
10111110001011100001110001101011
10111110010001001010101011110111
00111110001111111001110011010001
10111101101110011010000000011111
00111110001010001011011011011011
00111100111101011100001101001101
10111101110001011100101111010000
00111101111010010111010101000111
00111110000010111000100010010011
00111100001100101100100100101011
10111101011111101001010011011000
10111110001000110110010000011000
00111101011000101000111101110100
00111110001110110000101110001111
10111101110001010001011110101110
00111110010011110001001001011010
10111101010111110000100001111110
10111101011111111101011000010100
10111110010111010101011001110110
00111101111000001111011001101101
00111110010001010001100100100101
10111101001000110101010010011000
00111101111100011100100100101101
00111101111111101111010001110100
10111100110011011000100011001000
10111101110010101010110001000111
00111101111001011010111110001011
10111101100110110101110000110000
10111110001101101100000110101110
00111101110111101001101011000011
00111101111010010111101011010010
00111110001001000100011101001101
10111100001001010100010010010100
00111100101001111011000101001111
10111100100110001010110101000100
10111110000000101100010110010100
00111110001101111111110011001100
10111110000011110100110001100100
00111110000011111011111110010011
00111110000111100011011101101011
10111110000111010000110100000000
00111110001110100001001011101000
10111110011010101100000101010100
10111101110000011101101110101000
10111101010111011000110101111000
00111101001000000110010010011011
00111101100010110000000110010111
10111110010011100010010000110101
00111100100010010001101111001101
00111101111010110010100000110011
10111101101100010100001100101001
10111110000001111000011111101110
00111101101001011110011000100000
10111101110110111110000000101000
00111110000000011100100000111101
10111110001000001001111101011011
00111101011011010100110001101011
00111110001011011000000110000110
00111101101111010001100000001110
10111110000000011110100110110011
00111110010011110010101101010010
10111110001110011001111100101010
10111101101101011101000111011001
00111100111101011111010101010000
10111101110100101111111011011111
00111110000001100001111001110001
10111101110011111001100110000010
00111110001010100000001001111110
00111110010101101001110011111100
10111110000110111001110100001001
00111110001010101011001110000101
10111100110010110111111001110000
00111110000001001001010111111000
10111110001000000110001111000100
00111101001011010100001101000101
10111010111010000011101100101111
00111101001011110101000001011100
00111110000111110101101010100111
00111101011001100010110101001100
10111100010011100010010110101001
10111100101001100110111011000000
00111100100100011011010000111111
10111110001100001011011110011111
00111110010010110010001000011001
10111110010000000110000110100011
10111100011110100110000010110001
10111100011110110101100011010110
10111100001101000000100000010000
10111101001011000100101011001000
00111110001100100100101101011111
10111101000101001101101001010010
00111101101110100010100011001001
10111101000100100000111110101000
00111100111100110110000111100101
10111101111100110111110000000000
10111101011011111100010100000010
00111100111001100001111111001111
00111101111011110010111000100111
00111110000011100011111111010001
00111110000111001001010110101011
00111101100011010100000000001100
00111100101111111111111110111000
10111110010101100100010000100100
00111100011101100110101110001111
10111110001011101111000111001011
00111011110010101011011001101011
00111110001011000001100101100001
10111110000110100110001001001101
10111101011110000000011111001111
00111101111110000101100010001110
10111101101111001010101101111111
00111110010011011101011000110000
00111101101101110011111011100001
00111101110111000001110001011010
10111101100111110001101111001001
00111101110100111100001100000111
10111101100000100000101100110100
00111101101011101111010001111011
00111110001100101010110010010010
10111110001100001101001010000110
10111110000101101100010000011100
10111100101101111011010110000111
10111100010010101111011010011001
00111110000101100010100001001010
10111101010100101010110101110001
00111110001111000000101100000010
10111101110101110101001100111111
10111110001001001101110011010001
10111101000000100101011010111000
00111101100111000101011110110011
10111100000100011111011110001110
00111110001111000000000100111001
00111101111111011000111011110101
00111110001001100011010010101110
00111110001100011011010111110000
00111110001011101100111111000101
10111101101001110011001111011100
00111011101110111111111110011110
10111101010110001111101001111101
10111101011000111010001011100101
10111101110011011111010011010001
00111110000100111010011001111110
00111110000001000100111100110001
10111110010100100101111110111001
00111101101101010101001100111010
00111110000110011111100011111100
00111101110101100010110110000101
00111101101100001111100101101000
00111110000001010010101010010011
10111101111111011111000100110010
00111101100110110100000101110001
10111101010000010100011111100100
10111110000111101101100111100110
00111101000100010010011110110001
00111101011011010011110110000000
00111110010000101110100001111000
00111110010000010001011011010110
00111101110011111010011010011110
10111101111101110100101010110100
00111100101011010100001001001111
10111110001001110110110111101011
00111110000001110101000001111000
10111101110000001111010001000100
10111101001001011000111100010001
00111110010111101010001101010000
00111110000110001000100011101111
00111101110110000010101000000100
00111101111011011011001001100010
00111110010101000100011101100000
10111011000101101101001110001010
10111110000001000010101000011100
00111110010101011110111011110010
00111101100000100110011110110000
00111100111010000111001100001111
10111011001001101001100100001101
10111101000100001111101011100110
10111101111110100110110100010000
10111101101001101000000111110000
00111110010001010101001011110010
10111110010111100010101100010111
10111101111101101111000000111011
00111101011001110000110101000001
00111110010100100100000101000011
00111101010110010001101001001010
00111100010101100011101100111010
00111100101110011110110001000111
10111110010010011101010100100010
00111110000111001100010111110101
10111110000101011100110001001101
10111101111010011111101110110111
10111100101001001100011000101010
00111110000110010101011110101011
10111110010101100110000000000111
10111101111011110110111110110001
00111101010010100001110110111010
00111110010010100111111101000100
10111101101111011001010101010101
10111110010010101000010111011011
00111101000101011000100100111011
00111110001010010011000110101000
10111110010101100011110101100010
00111110000101001111001110110100
10111110010001101001111011101011
00111101110000101000100010001011
10111100001101010111100000110000
10111100111001010111010001001010
00111110010011011100001100000100
00111110010010101101010101001100
10111100111101011010110110101110
10111010010011111001111000101111
10111101100111011111011110100000
00111110010001011111100001111110
00111110010100100011101010110110
10111101111110100001101100000000
00111100010000001000001000110101
00111110000110100010101010100111
10111101110010100100011111011010
00111110010001111000111101110011
00111101110010011100111000000011
00111101101100101111100100011000
00111011111010001100111010011110
00111110010110111011110001000000
00111101001010001010001010010100
10111110000011100001101111010101
00111101100100000111011100101100
00111101101001101101001101101011
00111110000101011100101000101100
00111110000110000010101100111111
10111101001100010011000110011111
00111101011001010010110101111100
10111110000001011110000001101000
10111101110010010100000110100110
00111100100111011000000010011000
00111101000100111011110001000011
10111110000101111001000110101111
00111101010110110111001000010001
10111110010110001011001000011000
10111101110111110100000011000000
10111101010011001111000011001111
00111110001001000110110001001010
00111100010110001010010110001101
10111101110101001100101001111001
10111101111011100010001011000111
10111101111001010010011001000001
10111110000010010000000101000111
00111110000010001000100110011101
00111110010110011001100001101011
00111101111101110110101100001110
00111101101101100001111101100100
00111110010000110000000010101101
00111101100011001100001010010101
00111101110100111000110001110110
00111101110110100110101101111010
10111101001110110101101111111011
00111110000101100110000101000011
00111101111000100011101111101011
10111101111000110001001001111110
10111110010000011011101001011110
10111100110010101001101010011100
10111101011111100000100010100010
10111101001001011100100100100001
10111101110110110001100000111010
10111101101100100010100011100011
10111101010101000000110100111101
00111100100100111110111101100110
10111101010111110101101111101010
00111110010111010111100000011111
10111101101010010111000010100010
10111101101101101100010100101000
00111100000010010111001111001011
10111101001100001001011011010100
00111110010001011100010011110101
00111101011000000011110010010101
00111101110100101000011010000000
00111100010011100010000101111000
00111110001101011100100011000011
10111110001001000011101001011001
10111110010000011011001011001111
00111110000001101100000110110110
00111101111101011010110000111111
00111010100010100101011100000000
10111101100111011110010001100001
00111110000101000101011001000100
10111110010010010100100000110110
00111100111011100010111110000010
00111110001011001110000101110111
00111110001001111101111111110000
00111110010010110101100010011100
00111110000101110100001110001111
00111101010011011010000101001100
10111101010101001111010111100011
00111101101101100101011111011101
10111101001111011010110111011110
00111100111010000010000010011000
00111110001011111110001000101010
10111110001101111101000000110111
00111011110111011110001001010101
10111110001100110001001110100111
00111110000000100101101000111100
00111110001001101001001011001111
00111011110101101110101011111011
10111101111011010000110010010111
10111110010000000110001011011111
10111101111010000111010001100001
00111110010011111000000010011101
10111101100001111010011111100000
10111101111101110011010010011101
10111110010110011000000100111010
00111101111110000111011101100010
00111110010000011100110111100010
10111101101000011101010111111101
00111100100101110010011000000011
00111101101010100111011110000110
00111110001010001001010100000101
00111100110001100111011010001110
00111101111110110101101111101101
10111110010110001010110100110110
00111101001111110100100100110101
00111110001011101010110011001100
10111110000100110000100000111011
10111110000111001110000001100110
00111110000001001000001011110100
10111110000101000100101100010010
10111110001110001100001100000101
00111110001011100111101100010110
00111101111100011000010111110001
10111110001100100111011110101100
00111110000101101001010101001000
00111101111000100000001110110110
00111110000111001110010000101111
10111110001101100010100111011111
00111101110000101010100101111110
00111110001010100001110111010001
00111101110110001010001010001111
00111101101001000101111000000000
10111110001000011010010100111001
00111100101100110000111100110001
10111110010001010000101000101111
10111101111010101101111111011000
10111101111001011110000001011110
10111101111011001010011101100001
10111110010010011011000011000011
10111110000001110000001101011110
00111110010101100010011101110111
10111110010110000111011101110011
00111100010011010000011000101111
00111110001000010000101000111101
10111000101100001101111000100101
10111011111101001110111110111010
10111101111000011011110000100111
10111110001010100110100100100011
10111101100000011110110000111100
00111101101011101111000110110000
00111101000011101001111000001100
00111011011001011111000101100110
10111110001011111010110011110011
00111100110100111000101001001001
10111110010000010001001001000011
10111110000100001011111010001100
00111101011101101010111111000111
10111101110001100000101100000001
10111101011110001110101110001110
00111110000011100101110011100010
10111110011001001001001100000101
00111110001001010111011001100110
10111101011110001010001100110011
00111110001101110001101110110000
10111110010011110110100110110011
00111110000011100001100111001111
10111101011111101101101101011010
00111100111010010011001000110111
10111101111111000000111001000110
10111110000100100100011110110000
00111110001011000010100100100101
00111110001100100100111011101010
00111110000011001011100011111010
10111110001110011001010111010110
00111101100100100011110000001110
00111101001000101001110001010010
00111110000100111110010110000101
00111101000101101111100001011010
00111101000000010110111011011100
10111110000100111110010010101101
10111110000101110001110101000011
00111110001011011111101000100001
00111110010111000010110000110010
00111110000000100100110100010000
00111100111010110111011001010100
10111110001100110111001111011111
00111100010011100010111100001010
10111110010001111011110110000101
10111110000011110010010100010011
00111101000011010100011010001100
00111101111111110000000000011001
00111110001100010011011101111001
00111110000001011111001111001011
10111101111010010101111011111010
00111101100101101010101001011011
00111110001111000110110101100110
00111101100101101001011101001010
10111110000001100111001110101101
00111101100111111100011001000110
10111011101001100010101110001101
00111101110101110101101110111101
00111101100101111101010001001000
10111101101100110001100011010010
10111101000110110000010100100100
00111101100001001000010111100010
10111101010110110000000000110100
00111100010011001101010000001100
10111101110011101000110100011000
00111101101001110010001011001110
10111110000100000101000111001111
00111110010001100111000001110111
10111101001101011010000100001111
00111110001010110101110010110111
00111101100001001111111111101000
10111101111110111100101011001101
00111101111111101100001001100011
10111101111100100001011001111110
00111101110100001000110111000111
00111101110010000111000011001010
10111101110111010001001110111101
10111110001101111100110100001110
00111101100011101001001001110100
00111110000101000010000101010011
00111100011001011100010100001000
00111110000111001010001110100010
00111110011001101111011110101110
00111100001011101000101101111000
00111110001110000111010111010111
10111100111001110111101000110110
00111100010000010111110011000101
10111101111101011000010100011010
00111110010001110100000011001001
00111110010001000000101110111010
00111110000101011000101100110001
10111110010111000011100011110111
00111101010001101110000001111010
00111101010011010110010101000000
00111110011001010101100100000001
00111110000100000001101111101011
00111101101001110011111001111000
10111110010100100110111100111110
10111100011101111110100010111010
00111100010110000001110110101011
00111100110000101111010100011111
10111101010110001001101011011111
10111100111110101110011010111000
00111110010111100101100011000000
00111100110000010111110110110010
00111110010111100010111100110100
10111010110011111101010100001100
10111101001101001110111000010001
00111101100111101110101111111100
00111101111110010011111000010010
10111101000100010100011100100100
10111101011100101011110110001110
00111110000111111010111100000001
00111101101110001011000110100111
00111110000001101100111110110101
10111110000001001111010011011011
00111101010100001000011110011101
10111110001110000000011110001011
00111101110101101100110111011001
00111101001101100100110000110001
00111110000011111001111001010101
10111110001101011101011010011100
10111101101100011101001100001110
10111100111110010001101010000100
10111101000111111111101010001001
00111101001011100100001110000110
10111110001010000110000000101011
00111110001010101011011110100010
10111110010011110010000101110010
00111101110001110111001110110111
10111101111000011110010001111110
00111110000001011100011011000010
00111101100000001110011001100000
10111101111011101010100100001011
00111101100000000111100101010110
10111101010000000011010011111110
10111101011110010000010110110000
10111110001011101001101111110100
00111101100100100111100011111100
00111101010011101110111111011100
10111110001101001101110001110011
00111110001010001011010110011000
00111110001110000000110101100100
10111110000110110110110011111010
10111110000011010101100110100101
00111100011101010000011000001100
00111101100111110010100000111001
00111101001110011000110110101010
00111110000000010111001000001010
00111101110101011100001110011111
00111100110001000010011100101110
10111110010101011010110110100100
10111110001000100001010110011111
00111101000100101010111111100110
10111101110011110011011010001000
10111110010101111010101110101001
